unsigned char actor_onnx[] = {
  0x08, 0x06, 0x12, 0x07, 0x70, 0x79, 0x74, 0x6f, 0x72, 0x63, 0x68, 0x1a,
  0x03, 0x31, 0x2e, 0x38, 0x3a, 0xbd, 0x2d, 0x0a, 0x5c, 0x0a, 0x05, 0x69,
  0x6e, 0x70, 0x75, 0x74, 0x0a, 0x09, 0x6c, 0x31, 0x2e, 0x77, 0x65, 0x69,
  0x67, 0x68, 0x74, 0x0a, 0x07, 0x6c, 0x31, 0x2e, 0x62, 0x69, 0x61, 0x73,
  0x12, 0x01, 0x37, 0x1a, 0x06, 0x47, 0x65, 0x6d, 0x6d, 0x5f, 0x30, 0x22,
  0x04, 0x47, 0x65, 0x6d, 0x6d, 0x2a, 0x0f, 0x0a, 0x05, 0x61, 0x6c, 0x70,
  0x68, 0x61, 0x15, 0x00, 0x00, 0x80, 0x3f, 0xa0, 0x01, 0x01, 0x2a, 0x0e,
  0x0a, 0x04, 0x62, 0x65, 0x74, 0x61, 0x15, 0x00, 0x00, 0x80, 0x3f, 0xa0,
  0x01, 0x01, 0x2a, 0x0d, 0x0a, 0x06, 0x74, 0x72, 0x61, 0x6e, 0x73, 0x42,
  0x18, 0x01, 0xa0, 0x01, 0x02, 0x0a, 0x14, 0x0a, 0x01, 0x37, 0x12, 0x01,
  0x38, 0x1a, 0x06, 0x52, 0x65, 0x6c, 0x75, 0x5f, 0x31, 0x22, 0x04, 0x52,
  0x65, 0x6c, 0x75, 0x0a, 0x58, 0x0a, 0x01, 0x38, 0x0a, 0x09, 0x6c, 0x32,
  0x2e, 0x77, 0x65, 0x69, 0x67, 0x68, 0x74, 0x0a, 0x07, 0x6c, 0x32, 0x2e,
  0x62, 0x69, 0x61, 0x73, 0x12, 0x01, 0x39, 0x1a, 0x06, 0x47, 0x65, 0x6d,
  0x6d, 0x5f, 0x32, 0x22, 0x04, 0x47, 0x65, 0x6d, 0x6d, 0x2a, 0x0f, 0x0a,
  0x05, 0x61, 0x6c, 0x70, 0x68, 0x61, 0x15, 0x00, 0x00, 0x80, 0x3f, 0xa0,
  0x01, 0x01, 0x2a, 0x0e, 0x0a, 0x04, 0x62, 0x65, 0x74, 0x61, 0x15, 0x00,
  0x00, 0x80, 0x3f, 0xa0, 0x01, 0x01, 0x2a, 0x0d, 0x0a, 0x06, 0x74, 0x72,
  0x61, 0x6e, 0x73, 0x42, 0x18, 0x01, 0xa0, 0x01, 0x02, 0x0a, 0x15, 0x0a,
  0x01, 0x39, 0x12, 0x02, 0x31, 0x30, 0x1a, 0x06, 0x52, 0x65, 0x6c, 0x75,
  0x5f, 0x33, 0x22, 0x04, 0x52, 0x65, 0x6c, 0x75, 0x0a, 0x5a, 0x0a, 0x02,
  0x31, 0x30, 0x0a, 0x09, 0x6c, 0x33, 0x2e, 0x77, 0x65, 0x69, 0x67, 0x68,
  0x74, 0x0a, 0x07, 0x6c, 0x33, 0x2e, 0x62, 0x69, 0x61, 0x73, 0x12, 0x02,
  0x31, 0x31, 0x1a, 0x06, 0x47, 0x65, 0x6d, 0x6d, 0x5f, 0x34, 0x22, 0x04,
  0x47, 0x65, 0x6d, 0x6d, 0x2a, 0x0f, 0x0a, 0x05, 0x61, 0x6c, 0x70, 0x68,
  0x61, 0x15, 0x00, 0x00, 0x80, 0x3f, 0xa0, 0x01, 0x01, 0x2a, 0x0e, 0x0a,
  0x04, 0x62, 0x65, 0x74, 0x61, 0x15, 0x00, 0x00, 0x80, 0x3f, 0xa0, 0x01,
  0x01, 0x2a, 0x0d, 0x0a, 0x06, 0x74, 0x72, 0x61, 0x6e, 0x73, 0x42, 0x18,
  0x01, 0xa0, 0x01, 0x02, 0x0a, 0x2d, 0x0a, 0x02, 0x31, 0x31, 0x12, 0x06,
  0x6f, 0x75, 0x74, 0x70, 0x75, 0x74, 0x1a, 0x09, 0x53, 0x6f, 0x66, 0x74,
  0x6d, 0x61, 0x78, 0x5f, 0x35, 0x22, 0x07, 0x53, 0x6f, 0x66, 0x74, 0x6d,
  0x61, 0x78, 0x2a, 0x0b, 0x0a, 0x04, 0x61, 0x78, 0x69, 0x73, 0x18, 0x01,
  0xa0, 0x01, 0x02, 0x12, 0x10, 0x74, 0x6f, 0x72, 0x63, 0x68, 0x2d, 0x6a,
  0x69, 0x74, 0x2d, 0x65, 0x78, 0x70, 0x6f, 0x72, 0x74, 0x2a, 0x94, 0x04,
  0x08, 0x20, 0x08, 0x04, 0x10, 0x01, 0x42, 0x09, 0x6c, 0x31, 0x2e, 0x77,
  0x65, 0x69, 0x67, 0x68, 0x74, 0x4a, 0x80, 0x04, 0xce, 0x61, 0xbc, 0x3e,
  0xf5, 0xdc, 0xc4, 0x3d, 0x55, 0x3b, 0xc7, 0xbd, 0x9e, 0x66, 0x8c, 0xbe,
  0xad, 0x97, 0xe6, 0xbc, 0x42, 0x38, 0xea, 0x3e, 0x4f, 0xac, 0xa9, 0x3e,
  0x83, 0xa5, 0x1c, 0xbf, 0x7d, 0x87, 0xdd, 0x3e, 0xde, 0xfa, 0x3d, 0x3c,
  0x2d, 0x2c, 0xd7, 0x3e, 0x96, 0xed, 0x80, 0x3e, 0x38, 0xf3, 0xc1, 0x3e,
  0x51, 0x80, 0x91, 0xbe, 0xab, 0x80, 0x02, 0x3d, 0x10, 0xc6, 0x66, 0x3c,
  0xeb, 0xee, 0x05, 0xbe, 0xfa, 0xad, 0xc9, 0xbd, 0xb1, 0x40, 0x64, 0x3e,
  0x28, 0x3c, 0x72, 0x3c, 0x7f, 0x8a, 0x0f, 0x3e, 0xef, 0x57, 0x47, 0x3d,
  0xd0, 0x29, 0x0b, 0x3e, 0x34, 0x2e, 0x18, 0x3f, 0x5f, 0x28, 0x61, 0xbd,
  0xcb, 0xcc, 0xd1, 0xbb, 0xf1, 0x49, 0xd5, 0x3c, 0x16, 0x04, 0xd7, 0x3e,
  0xbc, 0xc4, 0x78, 0x3c, 0xc3, 0x06, 0xca, 0x3d, 0xa8, 0x3d, 0xdf, 0xbe,
  0x4b, 0xa0, 0x9c, 0xbe, 0x54, 0x4f, 0xc5, 0x3e, 0x15, 0x2e, 0xa2, 0x3e,
  0x4f, 0xb3, 0x7f, 0xbe, 0x7c, 0x45, 0x70, 0xbd, 0x85, 0xb5, 0x6c, 0xa9,
  0x86, 0x36, 0xdc, 0xa1, 0x15, 0x87, 0x01, 0xa4, 0x63, 0x76, 0x5d, 0xa3,
  0x85, 0x41, 0x68, 0xbd, 0x32, 0xa9, 0xa3, 0x3d, 0x55, 0x0c, 0x39, 0x3e,
  0x89, 0xa8, 0x33, 0xbd, 0x95, 0xbe, 0x02, 0xbe, 0x0b, 0xd9, 0xb9, 0x3e,
  0x21, 0x34, 0xbb, 0x3d, 0x41, 0x75, 0x35, 0xbf, 0x38, 0x2a, 0xe2, 0x3e,
  0x53, 0x49, 0xfd, 0x3e, 0x65, 0xdb, 0x18, 0x3f, 0x0b, 0xfd, 0x7e, 0xbd,
  0x43, 0xeb, 0x57, 0x3e, 0x84, 0x65, 0x44, 0xbf, 0x59, 0xea, 0x93, 0xbe,
  0xe5, 0xc5, 0x5d, 0x3c, 0xed, 0x5d, 0x36, 0x3e, 0xf2, 0xb0, 0x03, 0x3e,
  0x7d, 0xab, 0x0c, 0x3f, 0xb7, 0x9d, 0x42, 0x3e, 0xb3, 0x4b, 0x2a, 0x3e,
  0xa8, 0x70, 0xb8, 0x3d, 0xe9, 0x09, 0xd0, 0xbe, 0x0f, 0x29, 0x09, 0x3f,
  0x26, 0xb0, 0x90, 0x3d, 0xd1, 0x55, 0xd9, 0x3d, 0xd4, 0xd7, 0xdb, 0x3d,
  0x85, 0x01, 0x27, 0x3e, 0x3d, 0xf3, 0xdc, 0x3e, 0x8a, 0x24, 0x8c, 0x3e,
  0xbc, 0x13, 0x66, 0xbd, 0xa1, 0x7a, 0x9f, 0xbe, 0x92, 0x69, 0x51, 0x3c,
  0x61, 0x1f, 0x6d, 0xbf, 0x1e, 0xeb, 0xa9, 0xbd, 0x8a, 0x99, 0x1c, 0x3e,
  0xb9, 0xd0, 0x6f, 0xbe, 0x2f, 0x7a, 0x53, 0x3e, 0xfd, 0xad, 0x20, 0xbd,
  0x7e, 0x9d, 0xe1, 0x3d, 0x0d, 0xa9, 0x00, 0x3f, 0x06, 0x15, 0xa9, 0xbe,
  0x72, 0x44, 0xc3, 0x3e, 0x36, 0x2b, 0xd6, 0x3e, 0x1a, 0xba, 0x3c, 0x3e,
  0x57, 0xec, 0xe8, 0x3e, 0xbf, 0xaf, 0x10, 0x3f, 0x1e, 0x30, 0x13, 0x3f,
  0x60, 0x97, 0xff, 0x3e, 0xb4, 0x14, 0xfd, 0x3e, 0xb9, 0x31, 0x1d, 0x3e,
  0x9e, 0x1d, 0xe0, 0x3e, 0xbd, 0x01, 0xb9, 0xbd, 0xbf, 0xab, 0x12, 0xbe,
  0xff, 0x13, 0x42, 0x3e, 0x5e, 0x63, 0xff, 0x3d, 0xa1, 0x0e, 0x61, 0xbe,
  0x6f, 0xaa, 0x2b, 0x3e, 0xaf, 0xf9, 0x37, 0x3e, 0xd4, 0xba, 0xfc, 0xbe,
  0xcb, 0xce, 0xc4, 0x3e, 0x21, 0xb0, 0x81, 0xbe, 0x5c, 0x56, 0x15, 0xbe,
  0xfd, 0xe3, 0xbe, 0x3e, 0xc1, 0xf1, 0x85, 0x3e, 0x2d, 0x75, 0xda, 0xbe,
  0x70, 0x15, 0x8c, 0x3d, 0x81, 0xf1, 0xcf, 0x3e, 0xbf, 0x69, 0xc7, 0x3e,
  0xff, 0xc9, 0xfb, 0xbd, 0xc2, 0xc8, 0xba, 0x3e, 0xe9, 0x4a, 0xc2, 0x3e,
  0x20, 0x5b, 0x2b, 0xbe, 0xce, 0x9a, 0xe1, 0x3e, 0xcc, 0x28, 0x0e, 0x3e,
  0x7a, 0xbe, 0x9c, 0xbd, 0x6d, 0xa6, 0x99, 0xbe, 0x72, 0x3c, 0x7e, 0xbd,
  0x4f, 0x9d, 0x9d, 0x3e, 0x42, 0x87, 0x4a, 0x3e, 0x8c, 0xea, 0x87, 0xbd,
  0x8d, 0xaf, 0x1e, 0xbe, 0xc5, 0x03, 0xd6, 0x3e, 0x00, 0xdf, 0xfe, 0xbc,
  0xc1, 0xc6, 0x44, 0x3e, 0xec, 0xe2, 0xb4, 0x3e, 0xd5, 0x31, 0x04, 0x3f,
  0x27, 0xf3, 0x48, 0xbe, 0x2a, 0x90, 0x01, 0x08, 0x20, 0x10, 0x01, 0x42,
  0x07, 0x6c, 0x31, 0x2e, 0x62, 0x69, 0x61, 0x73, 0x4a, 0x80, 0x01, 0xb6,
  0x20, 0x43, 0x3f, 0x35, 0x15, 0x37, 0xbb, 0xd5, 0x1a, 0x00, 0xbd, 0x64,
  0xf0, 0xfb, 0x3e, 0x54, 0x01, 0xd9, 0x3e, 0x6e, 0xf9, 0x24, 0xbc, 0x68,
  0xde, 0xb9, 0x3e, 0xf7, 0x6b, 0x4f, 0x3e, 0x56, 0x9c, 0xe4, 0x3e, 0xeb,
  0x32, 0xcf, 0x8c, 0x84, 0x23, 0x5a, 0x3e, 0x58, 0xa6, 0x34, 0x3e, 0x58,
  0x69, 0xff, 0xbe, 0xf5, 0xf7, 0xfe, 0xbc, 0x4e, 0x8b, 0x40, 0x3e, 0xce,
  0x47, 0xe0, 0x3e, 0x04, 0x1a, 0xa1, 0xbd, 0x00, 0x90, 0xe5, 0x3e, 0x98,
  0xf1, 0x01, 0x3e, 0xbd, 0xe0, 0x03, 0x3f, 0x14, 0x11, 0x48, 0xbe, 0xcc,
  0x38, 0xab, 0x3e, 0xfe, 0xb0, 0x48, 0x3e, 0xb5, 0xf0, 0x0d, 0x3f, 0x7f,
  0x5f, 0x8b, 0x3e, 0x01, 0xdf, 0xa7, 0x3e, 0x7e, 0xd0, 0x0b, 0x3f, 0x72,
  0x41, 0xf0, 0x3b, 0xbd, 0x7a, 0xb5, 0x3e, 0x85, 0xde, 0x4b, 0x3f, 0xd4,
  0x88, 0x7e, 0x3e, 0x35, 0x65, 0xc5, 0xbc, 0x2a, 0x94, 0x20, 0x08, 0x20,
  0x08, 0x20, 0x10, 0x01, 0x42, 0x09, 0x6c, 0x32, 0x2e, 0x77, 0x65, 0x69,
  0x67, 0x68, 0x74, 0x4a, 0x80, 0x20, 0xe5, 0x07, 0x20, 0x3e, 0x4a, 0xf1,
  0xd2, 0xbd, 0xa9, 0xb8, 0x45, 0xbc, 0x87, 0xcc, 0x08, 0x3d, 0x83, 0x70,
  0x83, 0x3e, 0x60, 0xd6, 0x89, 0x3d, 0xab, 0x19, 0xbc, 0x3d, 0xae, 0x9d,
  0x04, 0x3f, 0x50, 0xca, 0xa7, 0x3d, 0x90, 0xf8, 0x05, 0x80, 0x66, 0xe3,
  0x7a, 0x3e, 0x4c, 0xb4, 0x19, 0x3e, 0x68, 0xfb, 0x36, 0xbe, 0x35, 0xc2,
  0xda, 0x3e, 0x59, 0xe2, 0x19, 0x3e, 0x93, 0xbd, 0x07, 0x3c, 0x49, 0xd4,
  0xbc, 0xbd, 0x5b, 0xff, 0xd6, 0x3c, 0x06, 0xb4, 0x28, 0x3f, 0x11, 0xe0,
  0x08, 0x3e, 0xa8, 0xff, 0xf2, 0x3d, 0xd8, 0xbd, 0x90, 0xbd, 0x2e, 0xb8,
  0x3c, 0x3d, 0x53, 0xd4, 0x99, 0x3e, 0xe7, 0xd3, 0x49, 0x3e, 0x49, 0xb0,
  0x9b, 0x3a, 0x9a, 0xfe, 0x34, 0x3e, 0x45, 0x18, 0x0e, 0xbe, 0x6d, 0xfa,
  0x2a, 0x3e, 0x0f, 0x75, 0x10, 0x3e, 0xe2, 0x81, 0x13, 0x3e, 0xa2, 0x80,
  0x72, 0x3d, 0xc6, 0xdd, 0x94, 0x3e, 0xb3, 0x4b, 0xb1, 0x3e, 0x8e, 0xea,
  0x17, 0x3d, 0x06, 0xa0, 0x2a, 0xbe, 0x2b, 0x09, 0x40, 0xbc, 0x0f, 0x6a,
  0x3f, 0xbd, 0xe4, 0x62, 0x3c, 0x3d, 0x5c, 0x76, 0x14, 0x3f, 0x40, 0xef,
  0xed, 0x3d, 0x11, 0x8c, 0x07, 0x80, 0xc5, 0xcf, 0x2c, 0xbe, 0x0a, 0x36,
  0xd7, 0x3e, 0x93, 0xeb, 0x2a, 0xbd, 0x00, 0x2e, 0x39, 0xbe, 0xbf, 0xf7,
  0x28, 0x3e, 0xf9, 0x53, 0x41, 0xbe, 0x02, 0x4f, 0xe2, 0x3d, 0x2c, 0x99,
  0x6f, 0x3e, 0x3d, 0xef, 0x8f, 0xbe, 0x5f, 0x8e, 0x20, 0x3e, 0x92, 0xd7,
  0xe3, 0x3d, 0x7b, 0x85, 0x0f, 0x3e, 0xd2, 0x51, 0x93, 0x3d, 0xb8, 0x28,
  0xd7, 0x3b, 0x23, 0x1e, 0xc0, 0x3d, 0xd3, 0xe4, 0xd5, 0xbd, 0x8b, 0x63,
  0xc2, 0xbd, 0x82, 0x34, 0x43, 0xbe, 0x0f, 0xdf, 0x95, 0x3e, 0xed, 0x5a,
  0x16, 0xbe, 0x6d, 0x1e, 0x10, 0x3d, 0x82, 0x59, 0xab, 0x3d, 0x93, 0xbd,
  0x62, 0x3d, 0xb4, 0x25, 0x94, 0x3d, 0x3c, 0xd6, 0x2f, 0x3d, 0xc1, 0xa4,
  0x77, 0xbd, 0x1e, 0x0e, 0x7b, 0x3e, 0x76, 0x9e, 0x08, 0xbe, 0x0a, 0x9c,
  0x20, 0x3e, 0x70, 0x03, 0x14, 0x3f, 0x2c, 0xe2, 0x33, 0x3e, 0x5d, 0xa0,
  0x06, 0x00, 0xb6, 0xd9, 0x82, 0x3e, 0xce, 0x77, 0x86, 0x3e, 0x0d, 0xbe,
  0x65, 0xbe, 0xfa, 0x0c, 0x01, 0x3f, 0xa3, 0x06, 0xf8, 0xbd, 0x1c, 0x4f,
  0xbc, 0xbb, 0x5f, 0xd9, 0x1d, 0xbe, 0xe2, 0x33, 0x3e, 0x3e, 0x5e, 0xef,
  0x2d, 0x3f, 0x43, 0x7b, 0xac, 0x3e, 0x75, 0x6e, 0x09, 0x3c, 0x18, 0x5c,
  0xce, 0x3d, 0xb8, 0x25, 0xaf, 0x3d, 0x54, 0xa1, 0x81, 0x3e, 0x6c, 0x57,
  0x31, 0x3e, 0xd0, 0x50, 0x74, 0xbc, 0x5e, 0x49, 0xc1, 0xbd, 0x88, 0x38,
  0x27, 0xbe, 0x2f, 0x7b, 0x5c, 0x3e, 0x4c, 0xa6, 0x93, 0x3e, 0x40, 0xb4,
  0x1e, 0x3e, 0x83, 0x3d, 0x16, 0x3d, 0xde, 0x3e, 0xc3, 0xbd, 0xa8, 0x57,
  0xf6, 0x3e, 0x60, 0xaa, 0x3c, 0x3e, 0xf9, 0x37, 0x0c, 0xbe, 0x57, 0xea,
  0x89, 0xbd, 0x4a, 0x25, 0x73, 0xbd, 0x61, 0x68, 0xce, 0x3d, 0x8a, 0xc3,
  0x86, 0xbd, 0xa1, 0xaa, 0x6e, 0x3d, 0xb4, 0x46, 0x03, 0x00, 0x56, 0xf7,
  0x4d, 0xbe, 0xa0, 0xba, 0xcb, 0x3e, 0xc9, 0x52, 0xef, 0x3d, 0xf8, 0xac,
  0x6c, 0xbe, 0xa7, 0xd4, 0x64, 0x3e, 0xcf, 0x60, 0xd4, 0xbc, 0x4d, 0x73,
  0x23, 0x3e, 0xb6, 0xc9, 0x93, 0x3d, 0xa9, 0x43, 0x03, 0xbf, 0x7d, 0xb7,
  0x15, 0x3d, 0x50, 0x85, 0x8a, 0x3c, 0x92, 0x58, 0x61, 0xbd, 0x6d, 0xc9,
  0x22, 0x3e, 0x2a, 0xbb, 0xcf, 0xbd, 0xc6, 0xff, 0xed, 0x3d, 0x27, 0xbc,
  0x1f, 0xbe, 0x03, 0x62, 0x1d, 0xbe, 0xc4, 0xa3, 0x48, 0x3e, 0x55, 0x81,
  0x35, 0xbd, 0x8d, 0xb1, 0x49, 0xbe, 0xcb, 0xce, 0x88, 0xbd, 0x06, 0xfc,
  0x8b, 0xbc, 0x2e, 0xc6, 0xd1, 0xbd, 0xa0, 0x44, 0x0b, 0xbd, 0x23, 0xee,
  0x0b, 0x3e, 0xc0, 0x17, 0x9e, 0x3e, 0x86, 0x7a, 0xeb, 0xbd, 0x00, 0x0b,
  0x7c, 0x3e, 0x34, 0x2e, 0xe0, 0x3d, 0xba, 0x7a, 0x2e, 0xbf, 0xa5, 0xdf,
  0x1f, 0x3c, 0xba, 0xfd, 0x03, 0x00, 0x2f, 0xc1, 0xb9, 0x3d, 0xde, 0xef,
  0x79, 0xbe, 0xe9, 0xcc, 0x1e, 0x3d, 0x29, 0x42, 0x8c, 0xbd, 0x4e, 0xb0,
  0x89, 0x3c, 0x73, 0x7e, 0xb9, 0x3e, 0xd3, 0xf4, 0x8a, 0x3e, 0x1c, 0x3f,
  0xbc, 0xbd, 0x30, 0xe2, 0x29, 0x3e, 0xb9, 0x7e, 0xd1, 0xbe, 0xbe, 0x71,
  0x00, 0x3f, 0xd0, 0x7b, 0x44, 0xbd, 0xc2, 0x7b, 0x6f, 0x3e, 0x4c, 0xef,
  0xe5, 0xbd, 0x46, 0xea, 0xed, 0xbe, 0x3e, 0x48, 0xe7, 0x3e, 0xbc, 0xd5,
  0xcf, 0x3e, 0xd4, 0x8a, 0x8b, 0x3e, 0xbc, 0x4b, 0x8d, 0xbd, 0x30, 0xa7,
  0x1f, 0x3b, 0x76, 0x7f, 0x16, 0xbe, 0x38, 0xd9, 0xa2, 0xbd, 0x27, 0xab,
  0xe4, 0xbd, 0x95, 0x35, 0x98, 0xbd, 0x52, 0xd4, 0x19, 0x3e, 0x89, 0xae,
  0x97, 0x3d, 0xce, 0xe5, 0x8a, 0xbe, 0x84, 0xf5, 0x85, 0x3e, 0x15, 0xb3,
  0x3b, 0xbb, 0xf6, 0xc0, 0x1f, 0xbf, 0x72, 0xdd, 0x15, 0xbd, 0x70, 0x95,
  0x05, 0x80, 0xe0, 0x71, 0x36, 0xbe, 0x19, 0xa8, 0xbb, 0xbe, 0xda, 0x95,
  0x2e, 0x3c, 0xce, 0xaa, 0x1c, 0xbf, 0x70, 0x16, 0x96, 0x3d, 0xbd, 0xe6,
  0xa3, 0x3d, 0xab, 0x3a, 0x11, 0x3e, 0x3a, 0xee, 0x29, 0xbe, 0xce, 0x9c,
  0x27, 0xbf, 0xe2, 0xb0, 0xc8, 0xbe, 0x0b, 0xca, 0x9a, 0x3e, 0x84, 0xc4,
  0x7d, 0x3e, 0x2d, 0x51, 0x19, 0x3e, 0x7c, 0x6a, 0x51, 0xbe, 0x85, 0xec,
  0x8b, 0xbd, 0xd2, 0x2d, 0x8a, 0x3e, 0xb8, 0xc4, 0x0d, 0x3e, 0x05, 0xec,
  0x86, 0x3d, 0x79, 0xb2, 0x59, 0xbe, 0xa6, 0x58, 0x24, 0xbe, 0xda, 0x49,
  0x28, 0xbe, 0x3a, 0x36, 0x27, 0xbd, 0xef, 0xd5, 0xcb, 0x3d, 0xd6, 0xc8,
  0x33, 0xbd, 0xce, 0x69, 0xbe, 0xbd, 0x46, 0x5a, 0x33, 0x3d, 0x5a, 0x45,
  0x66, 0x3e, 0x6f, 0x32, 0xb4, 0x3d, 0x15, 0x62, 0x23, 0x3d, 0xc3, 0x5e,
  0x0a, 0x3f, 0x55, 0x84, 0x59, 0x3d, 0x94, 0xd1, 0x01, 0x00, 0x74, 0x43,
  0x73, 0x3e, 0x23, 0x4e, 0xfa, 0x3d, 0xb6, 0x7d, 0xce, 0xbd, 0x22, 0xb5,
  0xd7, 0x3e, 0x78, 0x0f, 0x89, 0xbb, 0x03, 0x2f, 0x0d, 0x3e, 0x35, 0xe1,
  0x07, 0x3d, 0x2d, 0xc9, 0x70, 0xbd, 0xc3, 0xcf, 0x2e, 0x3f, 0x32, 0x6c,
  0x44, 0x3e, 0x15, 0xe3, 0x34, 0xbc, 0x80, 0x44, 0x22, 0xbd, 0x55, 0xce,
  0x65, 0xbd, 0xa8, 0xf5, 0x8e, 0x3e, 0x5e, 0x67, 0xf7, 0x3d, 0xae, 0xe7,
  0xec, 0x3d, 0x4e, 0xa3, 0xcd, 0x3d, 0xac, 0xe6, 0xed, 0x3d, 0xb9, 0xa3,
  0x1f, 0x3e, 0x27, 0x97, 0xaa, 0x3e, 0x9c, 0xfe, 0x68, 0x3e, 0x3a, 0xdd,
  0xa3, 0x3d, 0x67, 0x2e, 0xed, 0xbd, 0x1b, 0x0b, 0xd3, 0x3e, 0xd7, 0xbc,
  0xf2, 0x3d, 0x17, 0x50, 0x9a, 0x3d, 0x94, 0xa5, 0x75, 0xbe, 0x1d, 0x07,
  0xce, 0x3a, 0x10, 0xf3, 0xb2, 0x3d, 0x35, 0x2b, 0x6f, 0xbe, 0xe5, 0x87,
  0x16, 0x3e, 0x7c, 0x1c, 0x00, 0x00, 0x59, 0x87, 0x37, 0xbe, 0x2c, 0x7b,
  0xec, 0x3d, 0x32, 0x6d, 0x25, 0x3d, 0x24, 0x5b, 0xe6, 0xbe, 0xad, 0xb1,
  0x3d, 0xbd, 0x08, 0xb4, 0x9d, 0xbd, 0x4c, 0x69, 0x73, 0x3e, 0xb8, 0xe4,
  0xc9, 0x3d, 0xe0, 0x0e, 0x04, 0xbf, 0x06, 0x71, 0x98, 0xbc, 0x0c, 0xd3,
  0xb5, 0x3d, 0xb7, 0x6d, 0x45, 0x3e, 0xbb, 0xf9, 0xd3, 0x3d, 0x47, 0xd4,
  0xb2, 0xbe, 0xa0, 0xce, 0x41, 0xbd, 0x73, 0xfa, 0xda, 0x3a, 0x01, 0x9c,
  0xa7, 0xbd, 0xf9, 0x49, 0x93, 0xbd, 0x78, 0xa7, 0x19, 0x3e, 0x76, 0x1d,
  0x25, 0xbe, 0x4d, 0x31, 0x17, 0xbe, 0xad, 0x67, 0x0a, 0x3e, 0xe6, 0x48,
  0x90, 0xbc, 0x41, 0x21, 0xf8, 0x3e, 0x95, 0x27, 0x04, 0x3e, 0x2d, 0xd5,
  0x4f, 0x3e, 0x5f, 0xfd, 0x90, 0xbe, 0xda, 0xfe, 0x18, 0xbe, 0x9b, 0xa8,
  0x19, 0x3e, 0xe0, 0x54, 0x86, 0xbe, 0xe7, 0xf2, 0xa8, 0x3d, 0x03, 0x04,
  0x01, 0x80, 0x9c, 0x26, 0x5b, 0xbe, 0x92, 0x88, 0x77, 0x3e, 0x4d, 0xfa,
  0x27, 0x3e, 0x0e, 0xd2, 0xa0, 0xbe, 0x4c, 0x06, 0xa5, 0x3d, 0xfe, 0x53,
  0xd7, 0x3d, 0x8d, 0x7f, 0xad, 0xbb, 0x84, 0xd0, 0x35, 0x3e, 0x8c, 0xa4,
  0x06, 0xbf, 0xec, 0x85, 0xa4, 0xbd, 0xe4, 0x61, 0x82, 0x3d, 0x52, 0xcc,
  0x4c, 0x3e, 0x20, 0x9a, 0x9e, 0xbd, 0xe7, 0x33, 0x9d, 0xbe, 0xdd, 0x37,
  0xef, 0x3d, 0xab, 0x68, 0xdb, 0xbd, 0x25, 0x7f, 0xcd, 0xbd, 0xbe, 0x8e,
  0x32, 0x3d, 0xde, 0x06, 0x80, 0x3c, 0x27, 0xb9, 0xee, 0x3b, 0x97, 0x82,
  0x85, 0xbd, 0xe4, 0x70, 0xe0, 0xbd, 0x85, 0x35, 0x10, 0x3e, 0x68, 0xeb,
  0xe1, 0xbd, 0x64, 0xf2, 0x02, 0x3e, 0x15, 0xe2, 0xae, 0xbd, 0xee, 0xb7,
  0x91, 0x3e, 0x5c, 0xa9, 0x74, 0x3d, 0x3e, 0x2e, 0xcf, 0xba, 0xde, 0x01,
  0x0a, 0x3f, 0xf3, 0xb7, 0x8e, 0x3d, 0x4d, 0x15, 0x07, 0x80, 0xe1, 0x0d,
  0x8c, 0x3e, 0x13, 0x28, 0x51, 0x3e, 0x9c, 0x7c, 0xe9, 0x3d, 0x56, 0xf1,
  0xad, 0x3e, 0x62, 0xab, 0xcd, 0xbd, 0x1b, 0x61, 0xe1, 0x3d, 0x60, 0xf6,
  0x2d, 0x3e, 0x11, 0xeb, 0x18, 0x3e, 0x58, 0x6c, 0x9a, 0x3e, 0x18, 0x5c,
  0x8e, 0x3e, 0x62, 0xd9, 0x8e, 0xbe, 0x9b, 0xe3, 0x96, 0x3d, 0xfd, 0x87,
  0xac, 0xbd, 0x78, 0x0d, 0x47, 0x3e, 0xe5, 0xc6, 0x9e, 0x3d, 0x6c, 0x7a,
  0x2e, 0xbe, 0x2b, 0x2c, 0x98, 0xbe, 0xbf, 0x69, 0xf1, 0xba, 0xb7, 0x34,
  0x3a, 0x3e, 0x29, 0x54, 0xab, 0x3c, 0xa4, 0xf3, 0xae, 0x3e, 0x49, 0x53,
  0x41, 0x3e, 0x86, 0x48, 0xbe, 0xbd, 0x32, 0xa1, 0x00, 0xbe, 0x09, 0xd0,
  0xba, 0x3d, 0xee, 0x21, 0x9c, 0xbe, 0x8a, 0xcd, 0x6a, 0x3e, 0xfe, 0xa7,
  0x1c, 0xbe, 0x12, 0x5f, 0x8b, 0x3d, 0xd9, 0x73, 0x0e, 0x3f, 0x37, 0x2d,
  0x37, 0xbd, 0x6d, 0xea, 0x06, 0x80, 0xd8, 0xbd, 0x0c, 0x3e, 0xcc, 0xab,
  0x1d, 0x3d, 0xbb, 0x5f, 0x47, 0x3c, 0xc6, 0xbb, 0xb8, 0xbb, 0x6b, 0xdc,
  0x28, 0x3e, 0xa3, 0xfb, 0x9c, 0xbd, 0x50, 0x45, 0xc1, 0x3d, 0xa6, 0x7d,
  0x3c, 0x3d, 0xea, 0x46, 0x42, 0x3e, 0x7a, 0xc2, 0x43, 0x3e, 0xd4, 0xb4,
  0x93, 0xbc, 0xee, 0x5a, 0x0e, 0x3e, 0x35, 0xd6, 0x3b, 0x3e, 0xb2, 0x85,
  0x28, 0x3e, 0x19, 0x56, 0x86, 0x3e, 0x55, 0xc1, 0x3a, 0xbe, 0xb6, 0x5f,
  0xa0, 0xbe, 0x8f, 0xf7, 0x96, 0x3c, 0xad, 0x1b, 0x4d, 0x3e, 0xfb, 0x76,
  0x48, 0x3d, 0x91, 0xd0, 0x10, 0x3d, 0x35, 0x8e, 0xc9, 0xbc, 0xa8, 0x5a,
  0xbd, 0x3d, 0x0c, 0x41, 0xcf, 0x3e, 0x14, 0x35, 0x21, 0x3c, 0x2b, 0xca,
  0x78, 0xbe, 0x88, 0xa4, 0xb7, 0xbd, 0xa3, 0xcf, 0xad, 0xbd, 0x08, 0xa7,
  0xa8, 0x3d, 0xac, 0x9c, 0x02, 0x3f, 0x16, 0x6e, 0xe1, 0x3d, 0x96, 0x10,
  0x06, 0x00, 0x6d, 0x45, 0x50, 0xbe, 0x44, 0x6e, 0x83, 0x3e, 0x25, 0x37,
  0x2f, 0x3e, 0xee, 0x97, 0x73, 0xbe, 0x1a, 0xf5, 0x06, 0x3e, 0x6e, 0x69,
  0x97, 0xbd, 0x98, 0x0c, 0x8b, 0xbd, 0x1c, 0x2a, 0xee, 0x3d, 0x9b, 0x30,
  0xa7, 0xbe, 0xd6, 0x48, 0x87, 0x3e, 0xc6, 0x1b, 0x68, 0x3c, 0xd1, 0xe1,
  0xf1, 0x3d, 0x90, 0xdf, 0xd4, 0x3d, 0x35, 0x34, 0x19, 0x3d, 0x0c, 0x8d,
  0x3c, 0x3e, 0x03, 0xee, 0x7c, 0x3d, 0xe8, 0xb7, 0x8c, 0xbe, 0xff, 0x2c,
  0xcd, 0xb9, 0x00, 0xdd, 0x02, 0x3e, 0x1f, 0x3b, 0xdb, 0xbd, 0x04, 0x8d,
  0x1e, 0x3d, 0xcb, 0xa6, 0x24, 0xbd, 0xb6, 0xbb, 0x0e, 0x88, 0x22, 0xf7,
  0x03, 0x00, 0x1e, 0xd6, 0x9d, 0xaa, 0x08, 0xc3, 0x01, 0x80, 0xcc, 0x66,
  0x03, 0x00, 0x8b, 0x25, 0x9e, 0xa6, 0x7b, 0xff, 0xe8, 0x9c, 0x7d, 0xbb,
  0x07, 0x80, 0xeb, 0x72, 0xce, 0x98, 0x36, 0xff, 0x05, 0x00, 0xbb, 0x0b,
  0x01, 0x80, 0x00, 0x32, 0x07, 0x80, 0x35, 0x2f, 0xd0, 0xaa, 0x8f, 0x87,
  0x06, 0x80, 0x4f, 0x7d, 0x92, 0xaa, 0x27, 0x44, 0x15, 0x9c, 0x38, 0x36,
  0x5e, 0x83, 0xa4, 0x23, 0x20, 0x98, 0x4c, 0x8a, 0x05, 0x80, 0x6f, 0x6c,
  0x02, 0x00, 0x82, 0xce, 0xfb, 0xa9, 0x70, 0x2c, 0x09, 0xb1, 0x90, 0x09,
  0x3a, 0xaf, 0xdc, 0x8b, 0x0d, 0x83, 0xf3, 0x68, 0x04, 0x00, 0x3d, 0x61,
  0xb5, 0x95, 0x62, 0xc1, 0x8f, 0xa2, 0x1a, 0x08, 0x75, 0xaa, 0x84, 0x6b,
  0x85, 0x81, 0x09, 0xd4, 0x21, 0x97, 0x7c, 0xc8, 0x96, 0x87, 0xd2, 0x8a,
  0x8e, 0xa1, 0x6b, 0x02, 0x7b, 0xbe, 0x37, 0xbd, 0x98, 0x3d, 0xb7, 0x5c,
  0x56, 0x3e, 0xc2, 0x40, 0x81, 0xbc, 0xde, 0xfe, 0x7b, 0xbe, 0x8b, 0x23,
  0x56, 0x3e, 0xf9, 0x9a, 0xf3, 0x3d, 0x8e, 0x2b, 0x0f, 0xbf, 0x39, 0xe4,
  0xd0, 0x3c, 0x35, 0x7c, 0x06, 0x00, 0x6f, 0x17, 0x60, 0xbe, 0xe1, 0x88,
  0x7e, 0xbd, 0x48, 0x10, 0xea, 0x3d, 0x70, 0x3d, 0xb4, 0xbe, 0x31, 0x48,
  0xd8, 0xba, 0x82, 0x86, 0x0c, 0x3e, 0x34, 0x1a, 0x63, 0x3e, 0x56, 0x31,
  0xf7, 0xbc, 0x1e, 0x46, 0x2e, 0xbf, 0x39, 0x08, 0x90, 0xbe, 0xc7, 0xe8,
  0xdd, 0xbc, 0xf9, 0x9e, 0xb2, 0xbd, 0x47, 0x23, 0xa3, 0x3c, 0xed, 0x09,
  0xb7, 0xbe, 0x41, 0xbd, 0x88, 0xbd, 0xad, 0x86, 0xe9, 0x3d, 0xb0, 0x81,
  0x66, 0x3e, 0xb1, 0x97, 0x1d, 0x3e, 0xec, 0xc0, 0xb2, 0x3c, 0x78, 0x07,
  0x7f, 0xbd, 0x5e, 0xdb, 0x53, 0xbe, 0x7b, 0xb1, 0xb6, 0xbc, 0x85, 0x3f,
  0x67, 0xbd, 0x9c, 0x0d, 0xaf, 0x3d, 0x5e, 0x93, 0x4b, 0x3e, 0xe3, 0xb4,
  0x6b, 0x3d, 0x3e, 0x05, 0x78, 0xbe, 0x23, 0x78, 0xcb, 0x3d, 0xac, 0x55,
  0x5c, 0xbd, 0x01, 0x38, 0xf5, 0xbe, 0x0d, 0xff, 0x67, 0x3c, 0x85, 0xee,
  0x01, 0x80, 0x9d, 0xfc, 0x6e, 0xbe, 0x2f, 0xd3, 0x25, 0xbd, 0x85, 0xac,
  0x0c, 0x3d, 0x60, 0x62, 0xeb, 0xbe, 0xc5, 0xf2, 0x0d, 0x3e, 0x7b, 0xad,
  0x49, 0x3e, 0x31, 0x81, 0x35, 0x3d, 0xbe, 0xcc, 0x82, 0xbd, 0xf5, 0x5b,
  0x16, 0xbf, 0xf3, 0xf1, 0x3a, 0xbe, 0xf2, 0x30, 0x25, 0xbd, 0x07, 0x7f,
  0x63, 0x3e, 0xa5, 0x9b, 0xd5, 0x3d, 0x14, 0xb6, 0xad, 0xbe, 0x21, 0xe1,
  0x9f, 0xbc, 0xda, 0x4f, 0x1c, 0x3e, 0xfc, 0x2d, 0x59, 0x3e, 0x9b, 0x13,
  0xdd, 0x3d, 0x05, 0x60, 0x43, 0xbe, 0xc9, 0x5b, 0xeb, 0x3c, 0xe9, 0x94,
  0x25, 0xbe, 0x8a, 0xad, 0x42, 0x3e, 0xc8, 0xf7, 0x13, 0x3e, 0x71, 0xa9,
  0x2e, 0xbe, 0x1f, 0xd3, 0xa3, 0x3d, 0x45, 0x6d, 0x8f, 0xbc, 0x84, 0xe6,
  0x50, 0x3e, 0xc6, 0x8f, 0x55, 0x3d, 0x3e, 0xd5, 0x50, 0xbd, 0xac, 0xe9,
  0xe6, 0x3e, 0x66, 0x21, 0x10, 0x3e, 0x4b, 0x96, 0x00, 0x00, 0xff, 0xbe,
  0x73, 0x3e, 0x11, 0x60, 0x2e, 0x3e, 0xc8, 0xd6, 0x9c, 0xbc, 0x74, 0x9c,
  0xf8, 0x3e, 0x71, 0x6a, 0x9b, 0xbd, 0xe9, 0xa1, 0x18, 0x3e, 0x80, 0xe7,
  0xa9, 0xbc, 0x67, 0xa7, 0x8f, 0xbd, 0xa9, 0x56, 0x20, 0x3f, 0xb5, 0x0c,
  0x1d, 0x3e, 0xa2, 0x8e, 0x20, 0x3e, 0x3e, 0x85, 0xfb, 0x3d, 0x06, 0x77,
  0x58, 0xbd, 0x79, 0x98, 0x9c, 0x3e, 0x91, 0xc0, 0x56, 0x3e, 0x47, 0xe3,
  0x4c, 0x3e, 0x2b, 0x5b, 0x53, 0x3c, 0x22, 0x95, 0x81, 0x3b, 0xed, 0x51,
  0x91, 0x3e, 0x77, 0xab, 0x8f, 0x3e, 0xba, 0x97, 0x30, 0x3e, 0x65, 0x71,
  0x67, 0x3d, 0xf0, 0xe4, 0x8d, 0xbd, 0x2a, 0xdc, 0x95, 0xbb, 0xbc, 0xab,
  0x4b, 0xbd, 0xa9, 0x03, 0x48, 0x3d, 0xfc, 0x1a, 0x80, 0xbe, 0xbd, 0xf2,
  0x3e, 0x3e, 0x5b, 0x1a, 0x6a, 0x3d, 0x0b, 0xb2, 0x18, 0xbf, 0x1c, 0x83,
  0x2d, 0x3d, 0xfb, 0x8a, 0x07, 0x80, 0x42, 0x77, 0x6a, 0xbe, 0x29, 0x99,
  0x79, 0xbe, 0x3d, 0xe2, 0xb0, 0xbd, 0x07, 0x69, 0x04, 0xbf, 0x6a, 0x1b,
  0xc3, 0xbc, 0x28, 0x9e, 0x92, 0x3d, 0x47, 0x2c, 0x03, 0x3e, 0x9a, 0x6e,
  0xb1, 0xbd, 0x18, 0x80, 0x30, 0xbf, 0x65, 0x90, 0xf5, 0xbe, 0x09, 0xc7,
  0x74, 0xbd, 0xce, 0xcb, 0x49, 0x3e, 0xe5, 0xb0, 0x55, 0x3e, 0x93, 0x9b,
  0xc8, 0xbe, 0x71, 0xa9, 0x1e, 0xbd, 0xa0, 0xbd, 0x57, 0x3e, 0x3b, 0x48,
  0x57, 0x3e, 0x93, 0x03, 0x84, 0x3d, 0xd4, 0xd0, 0x2b, 0xbe, 0xa9, 0x7a,
  0xd8, 0xbd, 0x58, 0x48, 0x42, 0xbd, 0x59, 0xd9, 0x12, 0x3e, 0x46, 0xa9,
  0xbc, 0xbd, 0xca, 0x2e, 0x24, 0x3e, 0xa8, 0x12, 0x9c, 0x3d, 0x7e, 0x90,
  0x8b, 0x3c, 0x9f, 0x88, 0xa8, 0xbd, 0xfa, 0xb1, 0x27, 0x3d, 0x8c, 0x72,
  0x4b, 0x3c, 0x77, 0x1d, 0x1b, 0xbf, 0xfb, 0x02, 0x80, 0xbd, 0x80, 0xb4,
  0x03, 0x00, 0x1d, 0x0d, 0x19, 0xbe, 0x44, 0xe9, 0x71, 0xbd, 0x04, 0x93,
  0xfb, 0x3d, 0xdf, 0x73, 0xb2, 0xbe, 0x50, 0x9c, 0xb0, 0x3d, 0x1e, 0x47,
  0x03, 0x3d, 0xdf, 0x92, 0x8b, 0x3d, 0x3c, 0xdd, 0x72, 0xbc, 0x5f, 0x8d,
  0x33, 0xbf, 0xae, 0x81, 0x3a, 0xbe, 0xfa, 0x74, 0x91, 0x3d, 0x38, 0xcf,
  0x8d, 0x3d, 0x7c, 0xb7, 0x1a, 0x3d, 0x9d, 0x99, 0xbd, 0xbd, 0xc4, 0xb9,
  0x8a, 0xbd, 0x74, 0x9a, 0x33, 0x3d, 0x6e, 0x55, 0xa0, 0x3d, 0xe9, 0x11,
  0x89, 0x3d, 0x0f, 0x57, 0xa0, 0xbd, 0x36, 0x43, 0xf6, 0xbc, 0xf0, 0x60,
  0x83, 0x3d, 0x45, 0x9d, 0xea, 0x3d, 0x34, 0x91, 0xe5, 0xbe, 0x92, 0x36,
  0x5b, 0xbc, 0xbb, 0x2d, 0xcd, 0x3c, 0x61, 0x9a, 0x44, 0xbe, 0x58, 0xba,
  0x70, 0x3e, 0xfb, 0x6a, 0x69, 0x3d, 0x3c, 0x71, 0x5f, 0x3d, 0x5c, 0x7e,
  0x5a, 0xa3, 0x2e, 0x64, 0xc2, 0xbe, 0x8a, 0x93, 0x07, 0x00, 0x48, 0x9b,
  0x42, 0x3e, 0x42, 0xc9, 0x92, 0x3c, 0x6f, 0x06, 0xb7, 0x3c, 0xfc, 0xc7,
  0x16, 0xbe, 0x32, 0x29, 0x9e, 0x3d, 0x96, 0x3c, 0x5f, 0xbd, 0xa9, 0xa7,
  0x4a, 0x3d, 0x2a, 0x3f, 0x8d, 0xbe, 0x39, 0x97, 0xc6, 0xbe, 0xf3, 0xc9,
  0x46, 0x3e, 0x11, 0x05, 0x15, 0x3d, 0x1e, 0x7c, 0x6e, 0x3d, 0x25, 0x61,
  0x0a, 0xbd, 0xec, 0xeb, 0x4c, 0x3e, 0x1d, 0xe2, 0x93, 0x3c, 0xe5, 0xf3,
  0x80, 0xbd, 0x6e, 0xe4, 0xed, 0x3d, 0x20, 0x71, 0x27, 0x3d, 0x45, 0xe8,
  0xa7, 0x3d, 0x2d, 0x18, 0x80, 0x3e, 0x0a, 0xf7, 0x83, 0x3e, 0x65, 0xc5,
  0x80, 0x3d, 0xf6, 0x5a, 0x70, 0xbc, 0xa9, 0xaf, 0xea, 0x3e, 0xec, 0xda,
  0x08, 0x3e, 0x0e, 0x56, 0xb6, 0xbd, 0xc2, 0x81, 0x03, 0xbe, 0x04, 0x97,
  0xa4, 0x3d, 0xce, 0xff, 0xd6, 0x3d, 0x93, 0x4a, 0x54, 0xbe, 0x18, 0xf7,
  0x85, 0x3c, 0xbb, 0xd5, 0x05, 0x80, 0x6d, 0xcb, 0x04, 0xbe, 0x96, 0x5f,
  0x7f, 0x3e, 0xb5, 0x7b, 0x7c, 0x3e, 0x44, 0x24, 0x94, 0xbe, 0x1b, 0xdc,
  0x81, 0x3c, 0xe1, 0x42, 0xb4, 0xbc, 0x03, 0x64, 0xf3, 0x3d, 0xfa, 0xe0,
  0x99, 0xbc, 0xc6, 0x45, 0x01, 0xbf, 0xa9, 0x41, 0xb9, 0x3d, 0xe7, 0x3b,
  0xca, 0x3d, 0xeb, 0xac, 0xe7, 0xbd, 0xdf, 0xb6, 0x35, 0x3e, 0xe1, 0x1c,
  0x81, 0xbe, 0xaa, 0x5b, 0xc1, 0xbc, 0x72, 0x7b, 0x44, 0x3d, 0x6c, 0x73,
  0x47, 0xbc, 0x98, 0xa7, 0x41, 0x3c, 0x77, 0x1c, 0x93, 0xbd, 0x9c, 0xdd,
  0xb6, 0xbc, 0xc2, 0x36, 0x26, 0xbe, 0xcc, 0x04, 0x8b, 0x3c, 0x8b, 0x4c,
  0x08, 0x3e, 0x29, 0x71, 0x53, 0xbd, 0xc0, 0x83, 0xa0, 0xbd, 0xf1, 0x2d,
  0xab, 0xbd, 0x3c, 0xab, 0x96, 0x3e, 0x22, 0xbe, 0x32, 0xbe, 0xcd, 0x1b,
  0x88, 0xbc, 0xae, 0xb2, 0x09, 0x3f, 0x31, 0x37, 0xb6, 0x3d, 0xa4, 0x69,
  0x00, 0x80, 0x91, 0x8d, 0x89, 0x3e, 0x11, 0x84, 0x7c, 0x3e, 0x34, 0x9e,
  0x42, 0xbe, 0x6f, 0xe3, 0xb6, 0x3e, 0x2c, 0xc1, 0x2c, 0xbd, 0x90, 0x8d,
  0x96, 0x3b, 0xe8, 0x6d, 0xeb, 0x3c, 0xec, 0x7a, 0x49, 0x3e, 0xe4, 0x97,
  0x2a, 0x3f, 0xb0, 0x72, 0xb2, 0x3e, 0xe6, 0xbc, 0x92, 0x3d, 0x79, 0xbe,
  0x1a, 0x3d, 0xee, 0xf4, 0x31, 0xbd, 0x6d, 0x74, 0x9e, 0x3e, 0x44, 0x14,
  0x98, 0x3e, 0x13, 0x20, 0x15, 0x3d, 0x4d, 0x15, 0xbd, 0xbd, 0xfe, 0xee,
  0xcd, 0x3d, 0x85, 0x09, 0xd7, 0x3d, 0x1f, 0x79, 0x81, 0x3e, 0xa9, 0xe0,
  0x00, 0x3e, 0xa0, 0xae, 0xb6, 0xbd, 0x12, 0x2a, 0x82, 0xbd, 0x0f, 0xe7,
  0x84, 0x3e, 0x2f, 0xf8, 0xa6, 0x3d, 0x52, 0x64, 0x76, 0x3e, 0xeb, 0xaa,
  0x98, 0xbe, 0xd6, 0x38, 0x41, 0x3e, 0xc2, 0x83, 0xc4, 0xbc, 0x17, 0x25,
  0x15, 0xbf, 0xba, 0x62, 0x19, 0xbe, 0x7c, 0x80, 0x01, 0x80, 0xe8, 0x46,
  0x69, 0xbe, 0xfa, 0xb7, 0x96, 0xbe, 0x5b, 0x85, 0x8b, 0xbc, 0x28, 0x24,
  0x12, 0xbf, 0xd9, 0x9c, 0x1d, 0x3e, 0xa7, 0xf2, 0xa6, 0x3d, 0x34, 0x23,
  0x9a, 0xbc, 0xbb, 0x6c, 0x5f, 0xbd, 0x12, 0xe5, 0x33, 0xbf, 0x4c, 0xbe,
  0xaf, 0xbe, 0x87, 0x5e, 0x56, 0xbd, 0x52, 0xae, 0x0c, 0x3e, 0xd2, 0x97,
  0x22, 0x3e, 0xce, 0x3b, 0xad, 0xbe, 0xdb, 0xa1, 0x03, 0xbe, 0x41, 0x65,
  0x04, 0xbd, 0xe4, 0x45, 0xa3, 0x3d, 0xca, 0x77, 0x83, 0xbd, 0xc1, 0x21,
  0x53, 0xbe, 0xb9, 0xc7, 0x00, 0x3d, 0xe4, 0x8d, 0x2e, 0xbe, 0x00, 0x17,
  0xc8, 0x3d, 0xf5, 0x44, 0xaa, 0xbd, 0x9e, 0xc7, 0x49, 0x3e, 0xcb, 0x40,
  0x4a, 0x3e, 0x8d, 0xb0, 0x9b, 0x3d, 0xf8, 0xb9, 0x15, 0xbe, 0xec, 0x5b,
  0x45, 0x3e, 0x6b, 0x6e, 0xbf, 0x3d, 0x4d, 0x8c, 0x23, 0xbf, 0xe5, 0x99,
  0xf7, 0xbc, 0x3a, 0x65, 0x07, 0x80, 0x2d, 0x8f, 0x28, 0xbe, 0x7c, 0xd6,
  0x74, 0xbd, 0x38, 0x15, 0x05, 0xbd, 0x6e, 0xe5, 0x3c, 0xbf, 0xc5, 0x5d,
  0x17, 0x3e, 0x3c, 0x8e, 0x8b, 0x3e, 0x19, 0xed, 0xb6, 0x3b, 0x34, 0x91,
  0x0e, 0xbe, 0xcf, 0xa9, 0x29, 0xbf, 0xcd, 0x52, 0xd2, 0xbe, 0x0f, 0x55,
  0x79, 0x3e, 0x27, 0xdf, 0x71, 0x3e, 0xa8, 0x9b, 0xd9, 0xbd, 0xf5, 0x37,
  0xc6, 0xbe, 0xbf, 0xdb, 0x1f, 0xbe, 0xd0, 0x96, 0xfe, 0xbc, 0xe6, 0x06,
  0xbf, 0x3e, 0xcb, 0x0e, 0xe4, 0x3d, 0x0a, 0xaf, 0x91, 0xbd, 0x5c, 0xc3,
  0x53, 0xbe, 0x73, 0x17, 0xa2, 0xbc, 0xdf, 0x19, 0xc1, 0x3d, 0x93, 0xa2,
  0x6d, 0xbe, 0x75, 0xd4, 0x05, 0x3e, 0x3b, 0xab, 0x63, 0x3e, 0x37, 0xcc,
  0x88, 0x3e, 0x94, 0xdf, 0x8e, 0xbe, 0x4e, 0x21, 0x42, 0xbc, 0xa1, 0x14,
  0x04, 0xbe, 0xf4, 0x56, 0x14, 0xbf, 0xb3, 0xef, 0x63, 0xbe, 0x60, 0x65,
  0x01, 0x80, 0xa3, 0x50, 0x52, 0xbe, 0x32, 0x34, 0xf5, 0x3c, 0xf6, 0x4b,
  0x05, 0x3d, 0x11, 0xc6, 0x04, 0xbf, 0x63, 0xd4, 0xa7, 0x3d, 0xb6, 0x0a,
  0x9e, 0x3d, 0x41, 0x98, 0x5d, 0x3e, 0xdd, 0x02, 0xd3, 0xbb, 0xb7, 0x5d,
  0x3a, 0xbf, 0xfb, 0xee, 0xab, 0xbe, 0x00, 0x9e, 0x82, 0x3e, 0xae, 0x8f,
  0x3b, 0x3e, 0x94, 0xb1, 0x40, 0x3e, 0x8e, 0x19, 0x61, 0xbe, 0x5e, 0x60,
  0x98, 0xbe, 0x0f, 0x4f, 0x3b, 0x3e, 0x7e, 0x55, 0x57, 0x3d, 0x96, 0xa3,
  0xb4, 0xbb, 0x5c, 0x94, 0x2e, 0xbe, 0x46, 0xcf, 0x88, 0x3a, 0x65, 0x26,
  0x8c, 0xbd, 0x01, 0x47, 0xc7, 0xbb, 0x09, 0x16, 0xcf, 0xbe, 0x2f, 0xc9,
  0x17, 0x3e, 0x0a, 0x4b, 0x6c, 0x3d, 0x42, 0xe3, 0xb8, 0x3a, 0x1c, 0xc1,
  0x53, 0x3e, 0x40, 0xae, 0x6b, 0x3d, 0xd0, 0x20, 0x55, 0x3d, 0x45, 0x89,
  0x01, 0x00, 0xbe, 0x94, 0xdc, 0xbe, 0xf3, 0x43, 0x03, 0x00, 0x2d, 0xd9,
  0x26, 0x3e, 0xed, 0xc7, 0x63, 0x3e, 0xe0, 0x08, 0xba, 0xbd, 0x77, 0xaa,
  0x3a, 0xbe, 0xd1, 0xf6, 0xdd, 0x3d, 0x7f, 0x27, 0xaf, 0xbd, 0x3c, 0xba,
  0x26, 0x3d, 0x55, 0xe8, 0x3a, 0xbe, 0x11, 0xb7, 0xd2, 0xbe, 0xa0, 0xd0,
  0x76, 0x3d, 0x9b, 0x99, 0xb4, 0x3d, 0xe1, 0x53, 0xd7, 0x3d, 0x49, 0xf1,
  0xc8, 0xbd, 0xf2, 0x8d, 0x37, 0x3e, 0x08, 0x8f, 0x99, 0xbc, 0x69, 0x98,
  0x0f, 0x3d, 0x5d, 0x64, 0x06, 0x3e, 0xc9, 0xfd, 0x41, 0x3c, 0x8c, 0xee,
  0xb2, 0x3d, 0x99, 0xdc, 0x40, 0x3e, 0xbd, 0xcf, 0x68, 0x3e, 0xe4, 0xd7,
  0x87, 0x3c, 0x3e, 0xc4, 0x82, 0xbd, 0x5b, 0x73, 0x98, 0xbe, 0x09, 0xdd,
  0xbf, 0x3c, 0x9c, 0xa8, 0x00, 0x3e, 0xf3, 0x24, 0xf7, 0x3d, 0x1a, 0x8d,
  0x41, 0x3d, 0xe2, 0x90, 0x09, 0x3e, 0x8d, 0xac, 0x18, 0x3d, 0xf8, 0x54,
  0x96, 0xbd, 0xe3, 0x7b, 0x07, 0x00, 0xb9, 0x61, 0x7c, 0x3e, 0x42, 0x4c,
  0x9e, 0xbe, 0xfa, 0xe5, 0x89, 0xbd, 0x45, 0x2c, 0xe1, 0x3e, 0x3b, 0x65,
  0xaa, 0x3c, 0x7a, 0x2f, 0x90, 0x3d, 0xcf, 0x5e, 0x62, 0x3d, 0x3b, 0x0c,
  0xc3, 0xbd, 0xe6, 0xf3, 0x14, 0x3f, 0xd7, 0xc8, 0x0f, 0xbd, 0xd3, 0x77,
  0x01, 0x3e, 0xb1, 0xf5, 0x76, 0x3c, 0x4f, 0xfb, 0xd3, 0x3c, 0x97, 0x63,
  0x27, 0x3e, 0x43, 0x7f, 0x2e, 0x3e, 0x7b, 0xe7, 0xf6, 0x3d, 0xfa, 0xbf,
  0x04, 0x3e, 0xd4, 0x2d, 0x9e, 0x3d, 0x1f, 0xce, 0xc0, 0x3d, 0x31, 0xba,
  0x06, 0x3e, 0xa2, 0xe6, 0xa7, 0x3d, 0x33, 0x36, 0xab, 0xbd, 0xed, 0x8d,
  0x87, 0xbe, 0xdc, 0xa1, 0xd2, 0xbd, 0xa4, 0xa3, 0xa4, 0x3e, 0x8e, 0x8b,
  0x79, 0x3e, 0x47, 0x63, 0xae, 0xbe, 0x31, 0x68, 0x5a, 0x3e, 0xaf, 0xbc,
  0xe5, 0x3d, 0x88, 0x91, 0x31, 0xbf, 0x65, 0xa1, 0xc9, 0xbd, 0x2a, 0xa4,
  0x01, 0x80, 0x47, 0xfd, 0x19, 0xbe, 0xda, 0x9f, 0x64, 0xbe, 0xbf, 0x08,
  0x2b, 0xbc, 0xbc, 0xb4, 0xdb, 0xbe, 0x94, 0xa3, 0x7f, 0xbc, 0x55, 0x9f,
  0x8a, 0x3e, 0x85, 0x91, 0x8f, 0x3e, 0xca, 0x18, 0xd8, 0xbc, 0xee, 0x49,
  0x1d, 0xbf, 0xef, 0x0a, 0xb5, 0xbe, 0x31, 0x44, 0x92, 0x3e, 0x79, 0xc7,
  0x58, 0x3e, 0xed, 0xe7, 0xf5, 0x3d, 0x05, 0xb6, 0xa5, 0xbe, 0x2a, 0x1f,
  0x71, 0xbe, 0x2c, 0x5d, 0xce, 0x3d, 0x7c, 0x81, 0xd0, 0x3e, 0x0a, 0x90,
  0x04, 0x3e, 0xfd, 0x31, 0x37, 0xbe, 0xa1, 0xd8, 0xc2, 0xbd, 0x83, 0xbc,
  0xdc, 0xbd, 0xde, 0x38, 0x35, 0x3e, 0x81, 0x37, 0xac, 0xbc, 0x8d, 0x26,
  0x06, 0xbd, 0x80, 0x38, 0x31, 0x3e, 0xf4, 0x2c, 0x6c, 0x3e, 0x5e, 0x89,
  0x45, 0xbe, 0x2c, 0x65, 0x2a, 0xbb, 0x9e, 0x55, 0x37, 0x3e, 0xe0, 0xad,
  0x05, 0xbf, 0x74, 0x44, 0xe1, 0x3c, 0x0e, 0x5f, 0x02, 0x00, 0xa3, 0xc4,
  0x48, 0xbe, 0x50, 0x80, 0x96, 0xbe, 0x1c, 0xb4, 0x8d, 0x3e, 0xb3, 0x2c,
  0xf4, 0xbe, 0xdb, 0xba, 0xc7, 0xbd, 0xdd, 0x71, 0xd7, 0x3d, 0xb3, 0x4d,
  0x9e, 0xbb, 0x8f, 0x7a, 0x14, 0xbc, 0xe9, 0x49, 0x21, 0xbf, 0x9e, 0xb8,
  0x95, 0xbe, 0x19, 0xd2, 0x05, 0x3e, 0xf1, 0x2a, 0x4c, 0x3e, 0xe0, 0xdf,
  0x47, 0xbd, 0xe9, 0x59, 0xa5, 0xbe, 0xa6, 0x6a, 0x5d, 0xbe, 0xb5, 0x57,
  0xa4, 0xbc, 0xc4, 0x57, 0xf6, 0x3d, 0xe4, 0xe1, 0xbd, 0xbd, 0x44, 0x3b,
  0x74, 0xbd, 0xd6, 0x6c, 0x3b, 0xbe, 0x80, 0xb3, 0x50, 0xbe, 0x22, 0x7a,
  0x0c, 0x3e, 0x9a, 0x2e, 0xcb, 0x3c, 0xb4, 0x5e, 0x8f, 0x3d, 0x01, 0x3d,
  0x46, 0x3e, 0x8a, 0x81, 0x10, 0xbd, 0xd3, 0x3e, 0xa6, 0xbe, 0xa0, 0x67,
  0x61, 0x3e, 0x35, 0xfe, 0xa8, 0x3d, 0x07, 0xe3, 0x0f, 0xbf, 0x96, 0x47,
  0x3e, 0x3d, 0xc3, 0x2b, 0x02, 0x00, 0x72, 0xa8, 0x64, 0xbe, 0xd0, 0x62,
  0x6c, 0xbe, 0x75, 0xe5, 0x06, 0x3e, 0x52, 0x74, 0x19, 0xbf, 0xdf, 0xc5,
  0x25, 0x3e, 0x03, 0x34, 0x7b, 0xbd, 0x49, 0xcd, 0x53, 0x3d, 0xfe, 0x78,
  0x6d, 0x3d, 0x90, 0xcd, 0x24, 0xbf, 0xe8, 0xd9, 0xb9, 0xbe, 0x02, 0xb1,
  0x64, 0x3e, 0xe6, 0xcf, 0xdf, 0xbc, 0xb3, 0xe1, 0x5b, 0xbc, 0xd7, 0x93,
  0x93, 0xbe, 0x64, 0xfa, 0x18, 0xbe, 0x78, 0x48, 0x1d, 0x3e, 0x28, 0x63,
  0xd2, 0x3d, 0x59, 0x67, 0x1c, 0x3c, 0x7f, 0xa0, 0x44, 0xbe, 0xee, 0x8a,
  0x2d, 0xbe, 0x72, 0x7e, 0xe2, 0xbd, 0x60, 0xaa, 0x25, 0x3e, 0x32, 0xa6,
  0x52, 0x3e, 0xef, 0x25, 0xdf, 0xbc, 0x8e, 0x57, 0x02, 0xbd, 0xe1, 0x43,
  0x94, 0x3d, 0x38, 0x6e, 0x97, 0x3e, 0x14, 0xf4, 0x53, 0x3d, 0x33, 0x5e,
  0xce, 0x3d, 0xc4, 0x23, 0xed, 0x3e, 0xe5, 0xe1, 0xd6, 0x3c, 0x65, 0x9c,
  0x02, 0x00, 0x98, 0x77, 0x76, 0x3e, 0x4a, 0x97, 0xae, 0x3d, 0x6e, 0x77,
  0x25, 0xbe, 0xb8, 0xd7, 0x00, 0x3f, 0x68, 0x0a, 0x49, 0xbd, 0x3c, 0x98,
  0x96, 0xbc, 0xf5, 0x49, 0xff, 0xbc, 0xe1, 0x51, 0x8d, 0x3d, 0x34, 0xfb,
  0x1b, 0x3f, 0x24, 0x0a, 0x20, 0x3e, 0xa1, 0xdf, 0x66, 0xbd, 0xd9, 0xc6,
  0x20, 0x3e, 0x0e, 0xee, 0x86, 0x3c, 0x98, 0x30, 0xbd, 0x3e, 0x9e, 0x20,
  0x5d, 0x3e, 0xc3, 0xd6, 0x21, 0x3e, 0x1c, 0xcb, 0x67, 0x3e, 0x48, 0x24,
  0x07, 0xbd, 0xc6, 0xbd, 0x5d, 0x3e, 0xfd, 0xc8, 0xae, 0x3e, 0xe6, 0x79,
  0x3a, 0x3e, 0x64, 0x6d, 0x95, 0x3d, 0x4f, 0x32, 0xa8, 0x3d, 0x5e, 0xc8,
  0x9c, 0x3d, 0x75, 0x20, 0x1e, 0x3d, 0xb3, 0x6c, 0x25, 0x3d, 0xa4, 0x39,
  0x7f, 0xbe, 0x71, 0x55, 0x35, 0x3e, 0x74, 0x53, 0x9a, 0xbd, 0xcb, 0xfe,
  0xe5, 0xbe, 0xcf, 0x86, 0x5b, 0xbd, 0xe3, 0x8f, 0x01, 0x80, 0x02, 0xe0,
  0x51, 0xbe, 0x98, 0x7a, 0x3b, 0x3c, 0x76, 0x82, 0x29, 0x3e, 0x78, 0xf2,
  0xd1, 0xbe, 0xb2, 0x24, 0x51, 0x3e, 0x0c, 0xbd, 0xc9, 0xbd, 0x53, 0x89,
  0x25, 0xbd, 0x86, 0xc1, 0x04, 0xbe, 0x77, 0xe1, 0x0f, 0xbf, 0x5c, 0xbd,
  0x44, 0xbe, 0x38, 0x8d, 0xac, 0xbd, 0x62, 0xd1, 0xc1, 0x3c, 0x51, 0xa3,
  0x2e, 0x3e, 0x00, 0x76, 0xb6, 0xbe, 0x80, 0xb4, 0x12, 0xbe, 0xed, 0x68,
  0x82, 0xbc, 0x92, 0x08, 0x44, 0x3e, 0x58, 0x40, 0x39, 0x3e, 0x67, 0xb9,
  0x74, 0xbe, 0xbf, 0x9c, 0x2c, 0xbe, 0x58, 0xe6, 0xd7, 0xbd, 0x20, 0x08,
  0xeb, 0x3d, 0xe8, 0x50, 0x89, 0x3e, 0x62, 0x78, 0x86, 0xbd, 0xeb, 0x04,
  0x96, 0x3d, 0xf7, 0x62, 0x47, 0xbe, 0x5a, 0xa9, 0xa0, 0x3e, 0xee, 0x08,
  0xd6, 0x3d, 0xf8, 0xb1, 0x07, 0xbe, 0x7a, 0xae, 0x1a, 0x3f, 0x43, 0x94,
  0x8d, 0x3e, 0x6c, 0xdc, 0x05, 0x00, 0x1a, 0x26, 0x85, 0x3e, 0x57, 0x98,
  0x9c, 0x3e, 0x95, 0x6c, 0xe5, 0x3d, 0x22, 0x3b, 0x0d, 0x3f, 0xa5, 0x6e,
  0xa2, 0x3d, 0x66, 0xfb, 0xb4, 0x3d, 0x6e, 0x76, 0xdd, 0x3d, 0x67, 0x49,
  0x06, 0x3d, 0xae, 0x18, 0x43, 0x3f, 0x96, 0x0b, 0xd2, 0x3e, 0xc8, 0x61,
  0x90, 0xbe, 0xd9, 0x7d, 0x50, 0xbd, 0x08, 0xf2, 0x8c, 0xbd, 0x32, 0x7f,
  0x9a, 0x3e, 0xfe, 0x68, 0x9b, 0x3e, 0x5a, 0x4f, 0x56, 0xbe, 0xb3, 0xd4,
  0x83, 0x3b, 0x14, 0x46, 0x1a, 0xbe, 0xe9, 0xa2, 0x9a, 0x3c, 0x3c, 0x1c,
  0x79, 0x3e, 0x60, 0xe4, 0x9d, 0x3e, 0x5d, 0x0c, 0xa8, 0x3d, 0x2a, 0x90,
  0x01, 0x08, 0x20, 0x10, 0x01, 0x42, 0x07, 0x6c, 0x32, 0x2e, 0x62, 0x69,
  0x61, 0x73, 0x4a, 0x80, 0x01, 0x0c, 0x0e, 0x96, 0x3e, 0x9e, 0x8f, 0xd2,
  0x3d, 0xd1, 0x30, 0xbb, 0x3e, 0x33, 0xf4, 0x78, 0xbe, 0xd0, 0x5a, 0xaa,
  0x3d, 0xfa, 0x88, 0x9b, 0x3c, 0xd3, 0xe1, 0x6a, 0x3e, 0x1f, 0x1a, 0x76,
  0x3c, 0xfd, 0x3a, 0xdd, 0xbd, 0xc4, 0x24, 0x80, 0x3e, 0x43, 0x53, 0x1b,
  0x3e, 0x1b, 0x19, 0xf3, 0x3d, 0x9f, 0x07, 0xd3, 0x8a, 0x38, 0x73, 0x7b,
  0xbd, 0xd1, 0x95, 0x62, 0xbe, 0xf2, 0xf2, 0x8d, 0x3e, 0x1e, 0x1f, 0x76,
  0xbe, 0x7e, 0xa7, 0x16, 0xbe, 0xd3, 0x9a, 0xef, 0xbc, 0xde, 0x17, 0xab,
  0xbe, 0xfe, 0x24, 0xb5, 0x3e, 0x07, 0x5d, 0xe3, 0xb9, 0x1c, 0x58, 0x99,
  0xbe, 0x0b, 0x05, 0x8a, 0xbe, 0x91, 0xe7, 0xd8, 0xbd, 0xd3, 0x1d, 0xec,
  0x3d, 0xab, 0x2a, 0xde, 0xbb, 0xd4, 0x64, 0x3e, 0xbe, 0x11, 0xf4, 0x3c,
  0xbe, 0xb6, 0xfd, 0xba, 0x3e, 0x97, 0x3d, 0x8b, 0xbe, 0x93, 0x3a, 0x20,
  0x3e, 0x2a, 0x94, 0x03, 0x08, 0x03, 0x08, 0x20, 0x10, 0x01, 0x42, 0x09,
  0x6c, 0x33, 0x2e, 0x77, 0x65, 0x69, 0x67, 0x68, 0x74, 0x4a, 0x80, 0x03,
  0x0a, 0x08, 0x70, 0x3e, 0x45, 0x00, 0x8f, 0x3e, 0x06, 0x13, 0xa0, 0x3e,
  0xeb, 0x4b, 0xea, 0x3d, 0xf3, 0x7d, 0xdc, 0xbe, 0x3b, 0x37, 0x00, 0xbf,
  0xa0, 0x2d, 0x8e, 0x3e, 0x4d, 0x12, 0xb2, 0x3c, 0xdd, 0xcc, 0xca, 0x3d,
  0x3c, 0x0e, 0x98, 0x3e, 0x5c, 0x0f, 0x58, 0x3e, 0x40, 0xc8, 0x24, 0x3e,
  0xeb, 0x83, 0xbd, 0xb4, 0xd3, 0xf6, 0xd8, 0xbe, 0x17, 0xc6, 0x41, 0xbe,
  0x72, 0x4a, 0x8c, 0x3d, 0xd7, 0x34, 0x15, 0xbf, 0x23, 0x75, 0x47, 0xbe,
  0xa0, 0x39, 0x84, 0xbe, 0x16, 0x50, 0xca, 0xbb, 0x14, 0xf2, 0xf2, 0x3e,
  0xb0, 0xf9, 0xb5, 0xbe, 0x5f, 0x16, 0xfe, 0xbe, 0x28, 0x5d, 0xaf, 0xbe,
  0x85, 0x71, 0x86, 0xbe, 0x89, 0x1a, 0x08, 0xbe, 0xf3, 0x22, 0xa8, 0xbe,
  0x70, 0x9a, 0x25, 0xbe, 0x0b, 0x80, 0xcc, 0xbe, 0x55, 0xb7, 0x51, 0x3e,
  0xbd, 0x09, 0x8c, 0xbe, 0x8b, 0xec, 0xbf, 0x3e, 0x59, 0xb7, 0x4f, 0x3e,
  0x24, 0x87, 0x7e, 0xbe, 0x4a, 0xe8, 0xd4, 0x3c, 0x4b, 0xfb, 0xf4, 0xbe,
  0x7f, 0xf2, 0xb3, 0x3d, 0x1f, 0x59, 0x63, 0xbd, 0x43, 0xff, 0x32, 0x3e,
  0x03, 0xea, 0x81, 0xbe, 0xa8, 0x98, 0x19, 0xbe, 0x8e, 0x8d, 0x02, 0x3e,
  0xa5, 0x8c, 0xc5, 0x3c, 0x4e, 0x24, 0xc9, 0xbe, 0x96, 0x35, 0xe3, 0x38,
  0x2b, 0x08, 0x80, 0xbb, 0x9d, 0xf0, 0xcc, 0xbd, 0x29, 0x22, 0x71, 0x3e,
  0x31, 0x9f, 0x38, 0x3d, 0xed, 0x68, 0x1b, 0xbd, 0x27, 0x96, 0x7e, 0xbe,
  0xfd, 0x54, 0x53, 0xbe, 0xdb, 0xce, 0x82, 0x3e, 0xf3, 0x1e, 0x57, 0xbd,
  0xe7, 0x6f, 0xad, 0x3c, 0xa2, 0x7b, 0xd2, 0x3c, 0x6c, 0xfc, 0xa2, 0xbe,
  0x6f, 0x3a, 0x46, 0x3e, 0x51, 0x3c, 0xd8, 0x3d, 0x3b, 0x06, 0x6f, 0x3d,
  0x56, 0x4a, 0xe8, 0xbd, 0x48, 0xcf, 0x9f, 0x3e, 0x5f, 0xdd, 0x41, 0xbe,
  0xa2, 0x07, 0xa7, 0xbc, 0x0a, 0x4e, 0x30, 0xbe, 0x60, 0x39, 0x3e, 0xbc,
  0x4e, 0xf6, 0xa3, 0xbe, 0xef, 0xbd, 0x39, 0x3e, 0x05, 0x1e, 0xdc, 0x3b,
  0xe2, 0x27, 0xb1, 0x3c, 0xef, 0x56, 0x9a, 0xbe, 0x00, 0x7e, 0x20, 0x3e,
  0xbc, 0x4c, 0x76, 0x3e, 0xd1, 0xd6, 0x1d, 0xbe, 0x32, 0xfc, 0x2a, 0xbe,
  0x20, 0x29, 0x92, 0xbd, 0x2a, 0x8f, 0xc6, 0xb8, 0xc0, 0x4d, 0x7d, 0x3e,
  0x36, 0xa4, 0x1d, 0x3d, 0x44, 0xd5, 0xa6, 0xbe, 0xc6, 0xf3, 0x78, 0x3e,
  0x35, 0xdb, 0xd8, 0x3d, 0x4f, 0x1a, 0xbe, 0x3e, 0xb2, 0x26, 0xed, 0x3d,
  0xd3, 0x23, 0x54, 0xbe, 0x01, 0x15, 0xa2, 0x3e, 0xea, 0x7f, 0x4c, 0x3e,
  0xa1, 0x1d, 0x86, 0x3e, 0x9c, 0x4f, 0x0e, 0x3f, 0xa9, 0x79, 0x82, 0xbe,
  0x68, 0xe8, 0x2d, 0x3e, 0x9e, 0xa0, 0x90, 0x3e, 0xe9, 0x9c, 0x81, 0x3e,
  0x1c, 0x9e, 0x5c, 0xbe, 0x27, 0xd2, 0xa8, 0x3d, 0xc5, 0x47, 0xb2, 0xbe,
  0x2a, 0x1b, 0x08, 0x03, 0x10, 0x01, 0x42, 0x07, 0x6c, 0x33, 0x2e, 0x62,
  0x69, 0x61, 0x73, 0x4a, 0x0c, 0x5c, 0x92, 0xaa, 0x3e, 0x82, 0xa7, 0x35,
  0xbb, 0xcc, 0x47, 0x53, 0xbc, 0x5a, 0x17, 0x0a, 0x05, 0x69, 0x6e, 0x70,
  0x75, 0x74, 0x12, 0x0e, 0x0a, 0x0c, 0x08, 0x01, 0x12, 0x08, 0x0a, 0x02,
  0x08, 0x01, 0x0a, 0x02, 0x08, 0x04, 0x62, 0x18, 0x0a, 0x06, 0x6f, 0x75,
  0x74, 0x70, 0x75, 0x74, 0x12, 0x0e, 0x0a, 0x0c, 0x08, 0x01, 0x12, 0x08,
  0x0a, 0x02, 0x08, 0x01, 0x0a, 0x02, 0x08, 0x03, 0x42, 0x02, 0x10, 0x09
};
unsigned int actor_onnx_len = 5844;
