unsigned char actor_onnx[] = {
  0x08, 0x06, 0x12, 0x07, 0x70, 0x79, 0x74, 0x6f, 0x72, 0x63, 0x68, 0x1a,
  0x03, 0x31, 0x2e, 0x38, 0x3a, 0xbd, 0x2d, 0x0a, 0x5c, 0x0a, 0x05, 0x69,
  0x6e, 0x70, 0x75, 0x74, 0x0a, 0x09, 0x6c, 0x31, 0x2e, 0x77, 0x65, 0x69,
  0x67, 0x68, 0x74, 0x0a, 0x07, 0x6c, 0x31, 0x2e, 0x62, 0x69, 0x61, 0x73,
  0x12, 0x01, 0x37, 0x1a, 0x06, 0x47, 0x65, 0x6d, 0x6d, 0x5f, 0x30, 0x22,
  0x04, 0x47, 0x65, 0x6d, 0x6d, 0x2a, 0x0f, 0x0a, 0x05, 0x61, 0x6c, 0x70,
  0x68, 0x61, 0x15, 0x00, 0x00, 0x80, 0x3f, 0xa0, 0x01, 0x01, 0x2a, 0x0e,
  0x0a, 0x04, 0x62, 0x65, 0x74, 0x61, 0x15, 0x00, 0x00, 0x80, 0x3f, 0xa0,
  0x01, 0x01, 0x2a, 0x0d, 0x0a, 0x06, 0x74, 0x72, 0x61, 0x6e, 0x73, 0x42,
  0x18, 0x01, 0xa0, 0x01, 0x02, 0x0a, 0x14, 0x0a, 0x01, 0x37, 0x12, 0x01,
  0x38, 0x1a, 0x06, 0x52, 0x65, 0x6c, 0x75, 0x5f, 0x31, 0x22, 0x04, 0x52,
  0x65, 0x6c, 0x75, 0x0a, 0x58, 0x0a, 0x01, 0x38, 0x0a, 0x09, 0x6c, 0x32,
  0x2e, 0x77, 0x65, 0x69, 0x67, 0x68, 0x74, 0x0a, 0x07, 0x6c, 0x32, 0x2e,
  0x62, 0x69, 0x61, 0x73, 0x12, 0x01, 0x39, 0x1a, 0x06, 0x47, 0x65, 0x6d,
  0x6d, 0x5f, 0x32, 0x22, 0x04, 0x47, 0x65, 0x6d, 0x6d, 0x2a, 0x0f, 0x0a,
  0x05, 0x61, 0x6c, 0x70, 0x68, 0x61, 0x15, 0x00, 0x00, 0x80, 0x3f, 0xa0,
  0x01, 0x01, 0x2a, 0x0e, 0x0a, 0x04, 0x62, 0x65, 0x74, 0x61, 0x15, 0x00,
  0x00, 0x80, 0x3f, 0xa0, 0x01, 0x01, 0x2a, 0x0d, 0x0a, 0x06, 0x74, 0x72,
  0x61, 0x6e, 0x73, 0x42, 0x18, 0x01, 0xa0, 0x01, 0x02, 0x0a, 0x15, 0x0a,
  0x01, 0x39, 0x12, 0x02, 0x31, 0x30, 0x1a, 0x06, 0x52, 0x65, 0x6c, 0x75,
  0x5f, 0x33, 0x22, 0x04, 0x52, 0x65, 0x6c, 0x75, 0x0a, 0x5a, 0x0a, 0x02,
  0x31, 0x30, 0x0a, 0x09, 0x6c, 0x33, 0x2e, 0x77, 0x65, 0x69, 0x67, 0x68,
  0x74, 0x0a, 0x07, 0x6c, 0x33, 0x2e, 0x62, 0x69, 0x61, 0x73, 0x12, 0x02,
  0x31, 0x31, 0x1a, 0x06, 0x47, 0x65, 0x6d, 0x6d, 0x5f, 0x34, 0x22, 0x04,
  0x47, 0x65, 0x6d, 0x6d, 0x2a, 0x0f, 0x0a, 0x05, 0x61, 0x6c, 0x70, 0x68,
  0x61, 0x15, 0x00, 0x00, 0x80, 0x3f, 0xa0, 0x01, 0x01, 0x2a, 0x0e, 0x0a,
  0x04, 0x62, 0x65, 0x74, 0x61, 0x15, 0x00, 0x00, 0x80, 0x3f, 0xa0, 0x01,
  0x01, 0x2a, 0x0d, 0x0a, 0x06, 0x74, 0x72, 0x61, 0x6e, 0x73, 0x42, 0x18,
  0x01, 0xa0, 0x01, 0x02, 0x0a, 0x2d, 0x0a, 0x02, 0x31, 0x31, 0x12, 0x06,
  0x6f, 0x75, 0x74, 0x70, 0x75, 0x74, 0x1a, 0x09, 0x53, 0x6f, 0x66, 0x74,
  0x6d, 0x61, 0x78, 0x5f, 0x35, 0x22, 0x07, 0x53, 0x6f, 0x66, 0x74, 0x6d,
  0x61, 0x78, 0x2a, 0x0b, 0x0a, 0x04, 0x61, 0x78, 0x69, 0x73, 0x18, 0x01,
  0xa0, 0x01, 0x02, 0x12, 0x10, 0x74, 0x6f, 0x72, 0x63, 0x68, 0x2d, 0x6a,
  0x69, 0x74, 0x2d, 0x65, 0x78, 0x70, 0x6f, 0x72, 0x74, 0x2a, 0x94, 0x04,
  0x08, 0x20, 0x08, 0x04, 0x10, 0x01, 0x42, 0x09, 0x6c, 0x31, 0x2e, 0x77,
  0x65, 0x69, 0x67, 0x68, 0x74, 0x4a, 0x80, 0x04, 0xb8, 0x9d, 0x97, 0x3e,
  0x2b, 0xdf, 0x58, 0x3e, 0x1e, 0xf2, 0x04, 0x3f, 0x0e, 0x74, 0x82, 0xbd,
  0x10, 0x39, 0x83, 0x3d, 0x4f, 0x75, 0xfa, 0xbe, 0xde, 0xfc, 0x9a, 0x3e,
  0x1f, 0x00, 0x40, 0x3e, 0x1f, 0x0e, 0x10, 0x3f, 0x7a, 0xb6, 0x17, 0xbe,
  0x03, 0xe8, 0x1f, 0x3e, 0xae, 0xbd, 0x43, 0x3e, 0xd5, 0x6f, 0x1b, 0x3f,
  0xa5, 0xe9, 0x18, 0x3e, 0x90, 0xf8, 0xf3, 0xbd, 0x41, 0x60, 0x10, 0x3e,
  0x56, 0x2b, 0xac, 0xbe, 0x13, 0xb6, 0x8a, 0x3e, 0xd7, 0x3b, 0x74, 0x3e,
  0xb2, 0x01, 0x9f, 0xbd, 0x57, 0x2d, 0x0c, 0x3d, 0x7c, 0xb6, 0xdd, 0x3c,
  0xc4, 0xcf, 0x35, 0x3d, 0x35, 0x8c, 0xdb, 0x3b, 0xbe, 0x66, 0x21, 0x3c,
  0x5f, 0x98, 0x1d, 0xbd, 0x4c, 0xc6, 0xd6, 0x3c, 0xa5, 0x27, 0x04, 0x3d,
  0xe0, 0xa6, 0xca, 0xbc, 0xca, 0xce, 0x87, 0xbe, 0xe0, 0xd8, 0x14, 0x3f,
  0x6d, 0xe5, 0x10, 0xbe, 0x89, 0x7e, 0x10, 0x3f, 0x16, 0x47, 0xd3, 0x3e,
  0x9b, 0x39, 0xae, 0xbe, 0xa1, 0xb3, 0xcd, 0x3e, 0x48, 0xd0, 0x9d, 0xbe,
  0x5d, 0x36, 0x32, 0xbe, 0x7c, 0xa3, 0xfa, 0x3d, 0x26, 0xbc, 0x75, 0x3e,
  0xe2, 0x32, 0xb8, 0x3d, 0x5b, 0x7b, 0x8a, 0x3e, 0x30, 0xa7, 0xf0, 0xbc,
  0x55, 0xe5, 0x37, 0x3e, 0x0b, 0xb4, 0x44, 0x3e, 0x5e, 0x3e, 0xa5, 0xbe,
  0x63, 0x0d, 0xb4, 0xbe, 0x0f, 0x0f, 0x06, 0x3f, 0xfa, 0x66, 0xf5, 0x3d,
  0x5a, 0x9a, 0xa2, 0xbc, 0x2d, 0x72, 0xb2, 0xbe, 0xea, 0xfa, 0xf4, 0x3e,
  0x69, 0xd2, 0xa6, 0x3e, 0x9b, 0x9e, 0x10, 0x3c, 0x52, 0xe1, 0x68, 0xbe,
  0x3f, 0x61, 0x45, 0x3e, 0xb4, 0x11, 0xba, 0x3d, 0x84, 0x1a, 0x8f, 0x3e,
  0xd2, 0xbd, 0xbf, 0x3e, 0xc4, 0x7c, 0x3b, 0x3e, 0xd5, 0xa4, 0x14, 0x3f,
  0xd4, 0x0d, 0x61, 0x3e, 0x09, 0xa5, 0x7d, 0x3e, 0x25, 0x15, 0x8f, 0xbe,
  0x5d, 0x27, 0x00, 0xb5, 0xa7, 0x5e, 0xf4, 0xb4, 0xd8, 0xac, 0xff, 0xb4,
  0x30, 0x64, 0xff, 0xb4, 0x5c, 0xf1, 0xa0, 0x3c, 0xa2, 0x87, 0x00, 0x3c,
  0xb7, 0x1f, 0xe1, 0x3c, 0x91, 0x1b, 0xed, 0xbb, 0xdb, 0xc1, 0x7b, 0x3e,
  0x29, 0xc3, 0xc5, 0xbe, 0xe0, 0x51, 0xc9, 0x3e, 0x28, 0x9b, 0x94, 0xbe,
  0xb7, 0x5d, 0xd8, 0x3e, 0xcb, 0xeb, 0xfa, 0xbc, 0xf4, 0x85, 0xec, 0x3e,
  0x80, 0x54, 0x11, 0x3d, 0x84, 0xe4, 0xe7, 0x3e, 0x19, 0xd4, 0xf9, 0x3d,
  0x88, 0xb4, 0x5d, 0x3c, 0x0a, 0x07, 0x90, 0x3e, 0x44, 0xa9, 0xf7, 0xbe,
  0xe3, 0x6e, 0x01, 0x3f, 0x75, 0x65, 0xef, 0x3e, 0xca, 0x5e, 0x12, 0x3d,
  0x86, 0x3d, 0xa6, 0x3c, 0xca, 0x26, 0x96, 0xbd, 0xa4, 0x1a, 0xc6, 0x3d,
  0x9e, 0x32, 0xef, 0xbd, 0x98, 0x2d, 0x11, 0x3f, 0xc9, 0x6b, 0x3f, 0xbe,
  0x0d, 0xf4, 0x21, 0xbe, 0x87, 0x59, 0xd4, 0x3e, 0xf1, 0x85, 0x6c, 0xbb,
  0x22, 0x51, 0x33, 0xbb, 0xe6, 0x5e, 0x82, 0xbb, 0xdb, 0x46, 0x8a, 0x3a,
  0xe4, 0x7e, 0x47, 0xb7, 0x1d, 0x38, 0xbb, 0xb7, 0x04, 0xf0, 0x86, 0xb7,
  0xb2, 0xad, 0x53, 0xb6, 0xd4, 0x05, 0x60, 0x3e, 0x36, 0xaf, 0x73, 0x3e,
  0x11, 0x27, 0x2a, 0xbe, 0x21, 0x38, 0xb0, 0x3d, 0x95, 0x1e, 0x4b, 0x3e,
  0xad, 0x87, 0xd5, 0x3c, 0x85, 0x52, 0xac, 0xbe, 0x6c, 0x7d, 0x95, 0x3e,
  0xf1, 0x93, 0xfa, 0x3e, 0x85, 0xd6, 0x9a, 0xbd, 0x6c, 0xe5, 0x86, 0xbd,
  0x43, 0x8f, 0xd5, 0x3d, 0xb1, 0xbe, 0x90, 0x3b, 0x00, 0x3e, 0x96, 0xb7,
  0x23, 0xdc, 0x64, 0x3c, 0xdd, 0xb3, 0xac, 0xbc, 0xe7, 0xfe, 0x90, 0x3c,
  0x2d, 0xdf, 0x95, 0xbd, 0x80, 0x67, 0x73, 0x3d, 0xab, 0x76, 0x3c, 0xbd,
  0x01, 0x66, 0x2b, 0xbe, 0xcc, 0xef, 0x15, 0x3e, 0xae, 0xca, 0x85, 0x3e,
  0x39, 0xf5, 0x97, 0x3e, 0x2a, 0x90, 0x01, 0x08, 0x20, 0x10, 0x01, 0x42,
  0x07, 0x6c, 0x31, 0x2e, 0x62, 0x69, 0x61, 0x73, 0x4a, 0x80, 0x01, 0x8b,
  0xf8, 0xf5, 0x3e, 0x36, 0xf0, 0xeb, 0x3e, 0x9f, 0xb7, 0x72, 0x3e, 0xec,
  0xf3, 0x1b, 0x3e, 0x4d, 0x00, 0x7d, 0x3e, 0x31, 0x0e, 0x2b, 0x3d, 0xe2,
  0x0c, 0xc0, 0x3c, 0x94, 0x7e, 0x17, 0x3f, 0x4b, 0x2e, 0xa2, 0xbe, 0xbd,
  0x26, 0xf6, 0x3d, 0x27, 0x08, 0xaa, 0xbd, 0x3a, 0x11, 0x95, 0x3e, 0xfc,
  0xe4, 0xaf, 0x3e, 0x5b, 0x69, 0x83, 0xbd, 0x78, 0x75, 0xc6, 0xbe, 0x31,
  0xa6, 0x4c, 0x3d, 0xa2, 0xb9, 0xa8, 0xb4, 0x02, 0x30, 0xd9, 0x3c, 0xf1,
  0x16, 0xe9, 0x3e, 0x17, 0x1b, 0xed, 0x3e, 0x89, 0x3c, 0xb4, 0xbe, 0xc1,
  0xf3, 0xf5, 0x3e, 0x80, 0x65, 0xb7, 0x3d, 0x74, 0x34, 0x7b, 0x3e, 0x7c,
  0x2a, 0x81, 0xbb, 0x93, 0x66, 0x30, 0xb7, 0xb2, 0x1b, 0x33, 0xbe, 0xcd,
  0xcd, 0x36, 0x3e, 0xf9, 0x43, 0xe4, 0xbd, 0xa8, 0x40, 0x37, 0x3c, 0x34,
  0xf6, 0x5d, 0x3d, 0x79, 0x57, 0x34, 0x3e, 0x2a, 0x94, 0x20, 0x08, 0x20,
  0x08, 0x20, 0x10, 0x01, 0x42, 0x09, 0x6c, 0x32, 0x2e, 0x77, 0x65, 0x69,
  0x67, 0x68, 0x74, 0x4a, 0x80, 0x20, 0x44, 0x5f, 0xa1, 0xb6, 0xcc, 0x88,
  0xf8, 0xb5, 0x47, 0x4f, 0x7d, 0xb6, 0xef, 0x99, 0x51, 0xb6, 0xa8, 0x11,
  0x05, 0xb5, 0x92, 0x4c, 0x2d, 0x34, 0xb3, 0x76, 0x87, 0x33, 0xa1, 0xc1,
  0x22, 0xb6, 0x7c, 0xce, 0x16, 0xb6, 0x59, 0x61, 0x47, 0x33, 0x4c, 0x71,
  0x76, 0xb5, 0xc7, 0x91, 0x68, 0xb5, 0xbc, 0xa9, 0xf7, 0xb5, 0x69, 0x8e,
  0xa2, 0xb4, 0x08, 0x12, 0xc6, 0xb5, 0x73, 0x45, 0x1f, 0xb6, 0xf8, 0xa0,
  0x01, 0x00, 0x6e, 0xdc, 0xa7, 0x33, 0x32, 0xb3, 0x86, 0xb5, 0x59, 0x35,
  0xa2, 0xb6, 0xf4, 0x18, 0xc8, 0xb5, 0x51, 0xd3, 0x4a, 0xb6, 0x16, 0xb2,
  0xd2, 0x31, 0x32, 0x64, 0x64, 0xb6, 0x84, 0xd1, 0x03, 0x80, 0x50, 0x4f,
  0x06, 0x80, 0xc7, 0xef, 0x1c, 0xb4, 0x1a, 0x90, 0x4a, 0xb5, 0xf8, 0x50,
  0x3c, 0xb5, 0x78, 0xd1, 0xcd, 0x31, 0x76, 0xef, 0xa7, 0x32, 0xfe, 0xfd,
  0x1d, 0xb6, 0xcb, 0xd7, 0x92, 0xb5, 0xa9, 0x44, 0x4c, 0xae, 0x36, 0xe2,
  0xb6, 0xb3, 0xce, 0xdf, 0xb9, 0xb2, 0x83, 0x79, 0xb1, 0x25, 0x2c, 0x80,
  0xd1, 0x8f, 0x86, 0x26, 0x00, 0x00, 0x17, 0x48, 0xab, 0xb1, 0x52, 0x7a,
  0x1c, 0xaf, 0xa3, 0xf0, 0x06, 0x80, 0x44, 0x7c, 0x74, 0xa6, 0x8b, 0x9b,
  0x9c, 0xa3, 0xdb, 0xe1, 0x68, 0xac, 0xf3, 0x04, 0x4e, 0x96, 0xc6, 0x26,
  0x02, 0xab, 0x64, 0x00, 0xc9, 0xb1, 0xf3, 0x5e, 0x02, 0x00, 0xfb, 0xae,
  0x00, 0x80, 0x33, 0xb7, 0x03, 0xad, 0x58, 0x82, 0x7e, 0xb5, 0x93, 0xb2,
  0x70, 0xab, 0xf6, 0x68, 0xc4, 0x31, 0x07, 0x07, 0x02, 0x80, 0x14, 0xf6,
  0x87, 0xb2, 0xcf, 0x32, 0x06, 0x80, 0x41, 0x06, 0x00, 0x00, 0x6d, 0x02,
  0x20, 0x0c, 0x15, 0x3c, 0xcd, 0xa2, 0xe6, 0xd3, 0x35, 0xa5, 0x69, 0x82,
  0x05, 0x80, 0xab, 0xc3, 0x04, 0x80, 0xff, 0xef, 0xb0, 0xaf, 0x28, 0x98,
  0x41, 0xb8, 0xdf, 0x16, 0xf5, 0xb7, 0x70, 0xe0, 0xbe, 0xb8, 0x18, 0xc6,
  0x54, 0xb8, 0x0c, 0x20, 0xf7, 0x35, 0xa3, 0x99, 0x02, 0x32, 0x56, 0x00,
  0x07, 0x00, 0xcc, 0xcd, 0x03, 0xb8, 0x14, 0x3d, 0x8d, 0xb7, 0x00, 0x49,
  0x05, 0x80, 0xa3, 0xe3, 0xc9, 0x35, 0x4f, 0xa8, 0xfa, 0xb5, 0x92, 0xa1,
  0xb8, 0xb7, 0xe6, 0x63, 0x47, 0xb3, 0x7f, 0x59, 0x49, 0x37, 0xee, 0x54,
  0x33, 0x37, 0xf7, 0x93, 0x04, 0x80, 0xee, 0x19, 0x08, 0x00, 0xaf, 0xa4,
  0xe8, 0xb6, 0x1d, 0xa2, 0xea, 0xb8, 0x58, 0xcf, 0xdb, 0xb6, 0xb1, 0xbb,
  0x7a, 0x38, 0x34, 0x53, 0x03, 0x80, 0xbd, 0x7b, 0xd3, 0xb8, 0x64, 0xa0,
  0x00, 0x80, 0x6f, 0xc7, 0x00, 0x00, 0xc1, 0xbc, 0x81, 0x31, 0xb9, 0x69,
  0xd2, 0xb5, 0x83, 0x19, 0xb0, 0xb5, 0xff, 0x68, 0x3b, 0xa3, 0xda, 0xb7,
  0x04, 0x00, 0x55, 0xe9, 0x6d, 0xb7, 0x63, 0xb7, 0xcf, 0x3d, 0x24, 0x5d,
  0x8e, 0x3d, 0x39, 0x77, 0xe4, 0x3b, 0xc5, 0xa2, 0xc8, 0x3d, 0xb9, 0xfd,
  0xbe, 0x3d, 0xd4, 0x3a, 0x0b, 0xbd, 0xb7, 0x18, 0xe1, 0x3c, 0x5d, 0x56,
  0x2e, 0x3c, 0xb7, 0x4c, 0xc1, 0x3e, 0x88, 0xaf, 0xab, 0xbf, 0x9b, 0x4d,
  0x61, 0x3e, 0x1d, 0xfb, 0xb2, 0x3e, 0x4e, 0xd5, 0x66, 0x3e, 0xd4, 0xe7,
  0xf0, 0x3e, 0x6c, 0x4a, 0xb1, 0x3c, 0x19, 0x11, 0x52, 0x3e, 0x45, 0xc3,
  0x3c, 0x13, 0x6a, 0x3c, 0xa0, 0xbc, 0x01, 0xdb, 0x46, 0xbe, 0xb4, 0x04,
  0x33, 0x3e, 0xf9, 0x17, 0x41, 0x3e, 0x0b, 0x47, 0x34, 0xbe, 0xf7, 0x4e,
  0xcf, 0xbe, 0x51, 0xb4, 0x19, 0x3b, 0x55, 0x2c, 0xb4, 0xba, 0x67, 0x69,
  0x01, 0xa1, 0x8b, 0x37, 0xb2, 0x3e, 0x0c, 0x65, 0xc6, 0x3d, 0xf3, 0xab,
  0x7f, 0x3e, 0x06, 0xb4, 0x18, 0xbc, 0x96, 0x51, 0x34, 0xbe, 0x63, 0x81,
  0x5b, 0xbe, 0xf3, 0xbe, 0xb0, 0x3d, 0x78, 0x2e, 0x17, 0x3d, 0xd1, 0x62,
  0x49, 0x3e, 0x8c, 0xda, 0x45, 0x3e, 0x50, 0x00, 0x2e, 0xbe, 0x9b, 0x0d,
  0x0c, 0xbd, 0x5f, 0x98, 0x2c, 0x3d, 0xb6, 0x64, 0x0d, 0xbe, 0x5a, 0x8f,
  0xac, 0x3e, 0x4c, 0x27, 0x9a, 0xbf, 0xdf, 0x51, 0xe2, 0x3d, 0x89, 0xb8,
  0x19, 0x3e, 0xed, 0xeb, 0x4a, 0x3b, 0x7d, 0xcf, 0xe7, 0x3e, 0xe8, 0xa2,
  0x25, 0x3e, 0x89, 0xc8, 0xa0, 0x3d, 0xa0, 0xe6, 0x05, 0x00, 0x48, 0x4c,
  0xa0, 0xbc, 0x3e, 0xf9, 0x98, 0x3d, 0x23, 0xcb, 0x0f, 0x3e, 0xbb, 0x82,
  0x0d, 0x3e, 0x24, 0x62, 0x0e, 0xbe, 0x6e, 0x5d, 0xa5, 0xbe, 0x68, 0xfa,
  0x0e, 0x3e, 0x21, 0x82, 0x67, 0xba, 0x71, 0xb6, 0xc4, 0x89, 0xe9, 0xcc,
  0xb0, 0x3e, 0xc1, 0x20, 0xef, 0x3d, 0xa1, 0x46, 0xb2, 0x3e, 0x69, 0x4c,
  0x1c, 0xbc, 0xa1, 0x6a, 0x21, 0xbe, 0x6f, 0x29, 0x53, 0xbe, 0xde, 0x8e,
  0x62, 0x3d, 0x3e, 0xc7, 0x0e, 0xbd, 0xa2, 0xe1, 0xf0, 0x3d, 0xbf, 0xbd,
  0x50, 0x3d, 0x1e, 0x58, 0xad, 0xbc, 0x48, 0xc9, 0x09, 0x3d, 0xf4, 0x31,
  0xac, 0xbc, 0x49, 0x9d, 0x93, 0x3e, 0x78, 0x81, 0x39, 0xbe, 0x24, 0xf4,
  0xc4, 0x3f, 0xe3, 0xa0, 0xd3, 0xbd, 0x4a, 0x45, 0xa5, 0xbe, 0x43, 0x8f,
  0xef, 0xbd, 0x59, 0x49, 0x00, 0xbf, 0x0d, 0xb5, 0xd2, 0xbd, 0x4c, 0xf3,
  0x36, 0xbe, 0x09, 0x3a, 0x58, 0xac, 0xc4, 0x50, 0xa0, 0x3c, 0xe0, 0xad,
  0x96, 0x3e, 0x39, 0xbd, 0x2d, 0x3e, 0x65, 0x7e, 0x92, 0xbd, 0x9a, 0xf8,
  0x5e, 0x3e, 0x91, 0xd9, 0xe6, 0x3e, 0x28, 0x4c, 0x1a, 0xbe, 0x40, 0x4a,
  0xfc, 0x3a, 0x1f, 0xec, 0x5b, 0x31, 0xf0, 0x3c, 0x4c, 0xbe, 0x25, 0xd2,
  0x19, 0xbe, 0xdd, 0x99, 0xb3, 0xbe, 0xd0, 0xf0, 0x0f, 0x3c, 0x47, 0x75,
  0x3d, 0x3e, 0x22, 0x1e, 0x2b, 0x3e, 0x94, 0x24, 0x39, 0xbd, 0x8b, 0xc0,
  0x7d, 0xbd, 0xf9, 0xe1, 0xfe, 0x3d, 0x9d, 0x97, 0x12, 0x3d, 0xfc, 0x05,
  0x91, 0xbd, 0x6a, 0xf1, 0x0a, 0xbd, 0x7f, 0x05, 0xd9, 0x3c, 0xa7, 0x2f,
  0xa5, 0x3c, 0x21, 0xf0, 0x91, 0x3e, 0x82, 0x7f, 0xad, 0xbf, 0x84, 0x3e,
  0x50, 0x3d, 0xe1, 0xee, 0x3d, 0x3e, 0x00, 0x03, 0x43, 0x3e, 0x8c, 0x30,
  0xf3, 0x3e, 0xcf, 0x89, 0x73, 0x3e, 0xa1, 0x50, 0x85, 0x3d, 0x37, 0xb9,
  0xda, 0x1b, 0x9e, 0x13, 0xa0, 0xbc, 0xad, 0xaf, 0x05, 0xbe, 0x93, 0xbe,
  0x00, 0x3d, 0xba, 0xc3, 0x76, 0x3e, 0x1c, 0x99, 0xfe, 0xbc, 0x60, 0xdb,
  0xd3, 0xbe, 0x87, 0xa0, 0x16, 0x3e, 0xd3, 0xc1, 0xc8, 0xba, 0x88, 0xb5,
  0x83, 0xa6, 0xa4, 0x9b, 0xb6, 0x3e, 0x67, 0xa4, 0x70, 0x3e, 0xd1, 0x8a,
  0xb6, 0x3e, 0xc0, 0x2f, 0x17, 0xbc, 0xe5, 0x2c, 0x36, 0xbe, 0xa6, 0x27,
  0x5e, 0xbe, 0xa8, 0xde, 0xd4, 0xbc, 0x0e, 0x81, 0xcf, 0xbd, 0xa7, 0xdd,
  0x2d, 0x3e, 0xdd, 0x29, 0xcf, 0x3d, 0x08, 0xc8, 0xbb, 0xbd, 0xbd, 0xaa,
  0x08, 0xbd, 0x96, 0x6a, 0xb0, 0x3c, 0x8d, 0x23, 0xc5, 0xbd, 0xb6, 0xe3,
  0x97, 0x3e, 0x65, 0x86, 0xb6, 0xbf, 0xee, 0xcd, 0x2a, 0x3e, 0xba, 0xa7,
  0xa1, 0x3e, 0x42, 0x82, 0x72, 0x3e, 0x2c, 0xbc, 0xee, 0x3e, 0x8c, 0x27,
  0xeb, 0xbb, 0xcb, 0xf9, 0xbc, 0x3d, 0xe3, 0x90, 0x08, 0x1c, 0xcc, 0x0b,
  0x9d, 0xbc, 0x74, 0x62, 0x6b, 0xbc, 0x02, 0x99, 0xbf, 0x3d, 0x56, 0x7a,
  0xc8, 0x3e, 0x86, 0x7a, 0x09, 0xbe, 0xa8, 0x24, 0xe8, 0xbe, 0x66, 0x92,
  0x11, 0x3c, 0x52, 0x25, 0xc9, 0xba, 0xfb, 0xd9, 0x9e, 0xa6, 0x33, 0x64,
  0xb7, 0x3e, 0xa7, 0x60, 0x0a, 0x3d, 0x6f, 0x3e, 0x87, 0x3e, 0x85, 0x92,
  0x0f, 0xbc, 0xf8, 0xd5, 0x3b, 0xbe, 0xbf, 0xe9, 0x62, 0xbe, 0x83, 0xb0,
  0x31, 0xbd, 0x12, 0x34, 0x5f, 0xbd, 0xeb, 0x26, 0x6a, 0x3d, 0xbd, 0x97,
  0x5f, 0x3e, 0x8c, 0x12, 0x2a, 0x3d, 0xf8, 0xd8, 0x0b, 0xbd, 0x34, 0x76,
  0xff, 0x3c, 0xe3, 0xf3, 0x06, 0xbe, 0x07, 0xa3, 0xee, 0x3d, 0xde, 0xda,
  0xa4, 0xbf, 0x03, 0x80, 0x2c, 0x3e, 0xe2, 0x7b, 0x8a, 0x3e, 0x48, 0xe6,
  0x1c, 0x3e, 0x92, 0xfd, 0xef, 0x3e, 0x21, 0xb5, 0x24, 0x3e, 0xae, 0xa2,
  0xa5, 0xbb, 0x47, 0x7d, 0x0f, 0x00, 0x44, 0xc0, 0xa0, 0xbc, 0xff, 0x0a,
  0x05, 0xbe, 0x26, 0x96, 0x45, 0x3e, 0xf9, 0xbd, 0xa3, 0x3e, 0x95, 0x2e,
  0x07, 0x3d, 0xe9, 0x41, 0xc1, 0xbe, 0x0c, 0x72, 0x71, 0xbb, 0xf7, 0x4c,
  0x91, 0xba, 0x93, 0xb5, 0x51, 0x95, 0x5d, 0x2c, 0xbf, 0x3e, 0x3b, 0xfe,
  0x52, 0x3e, 0x6b, 0xe1, 0xc7, 0x3e, 0xf9, 0x6b, 0x1c, 0xbc, 0x6b, 0x7a,
  0x2f, 0xbe, 0x2a, 0x4f, 0x5e, 0xbe, 0x50, 0xcd, 0x01, 0x3e, 0x97, 0xf4,
  0x3a, 0x3d, 0x02, 0x75, 0xc3, 0x3c, 0xb1, 0x97, 0x68, 0x3e, 0xc5, 0xfd,
  0x0f, 0xbe, 0x30, 0x2a, 0x0c, 0xbd, 0x42, 0x11, 0x3f, 0x3d, 0xe7, 0x14,
  0x1d, 0x3d, 0xcf, 0xae, 0x15, 0x3e, 0x63, 0x92, 0xa0, 0xbf, 0xdc, 0x04,
  0x15, 0x3e, 0x7c, 0x3a, 0x11, 0x3e, 0x03, 0xdd, 0xa4, 0x3d, 0x27, 0x96,
  0xf8, 0x3e, 0xe4, 0xd6, 0xd4, 0x3d, 0x36, 0x46, 0x39, 0x3e, 0xdf, 0x66,
  0x06, 0x00, 0xaa, 0xac, 0xa0, 0xbc, 0xa6, 0x85, 0x2a, 0xbe, 0x90, 0x5d,
  0x86, 0x3d, 0x37, 0xe7, 0xba, 0x3e, 0x27, 0x5b, 0x16, 0xbe, 0xd4, 0xd0,
  0x9c, 0xbe, 0xae, 0x69, 0x5b, 0x3e, 0x04, 0x9c, 0x6a, 0xba, 0x93, 0x9e,
  0x97, 0x89, 0xd9, 0x89, 0xae, 0x3e, 0x83, 0x47, 0xf3, 0x3c, 0x56, 0x14,
  0x82, 0x3e, 0xe5, 0x8a, 0x1d, 0xbc, 0x62, 0x78, 0x1e, 0xbe, 0x08, 0x79,
  0x1a, 0xbe, 0xbd, 0x51, 0x80, 0x3e, 0x5a, 0xc9, 0x85, 0x3e, 0x48, 0x4f,
  0xb0, 0x3d, 0x31, 0x88, 0x9a, 0x3d, 0x44, 0x3a, 0x96, 0x3e, 0x16, 0xe2,
  0x06, 0x3d, 0xfe, 0x60, 0xde, 0xbc, 0x43, 0xe9, 0x9a, 0x3e, 0x93, 0xac,
  0xe9, 0xbd, 0x89, 0x9d, 0xaa, 0x3f, 0x6d, 0x46, 0xd2, 0x3d, 0x29, 0x1e,
  0x0d, 0x3d, 0x64, 0x7f, 0xb3, 0x3d, 0x9b, 0x5d, 0xf0, 0xbe, 0x22, 0x8d,
  0x16, 0x3e, 0xbb, 0x87, 0x46, 0x3e, 0x9e, 0x0e, 0xed, 0x9c, 0x15, 0xc5,
  0x9b, 0x3c, 0x89, 0xae, 0xa3, 0x3e, 0xf1, 0xdd, 0x31, 0x3e, 0x59, 0x7e,
  0x63, 0xbc, 0x52, 0x01, 0xa3, 0x3e, 0x3f, 0x52, 0xd1, 0x3e, 0x31, 0xb8,
  0xfd, 0x3d, 0x57, 0x7b, 0xc6, 0x3a, 0xec, 0x53, 0x0d, 0x27, 0x03, 0xa5,
  0x0b, 0xbe, 0x95, 0xc2, 0x12, 0x3d, 0x65, 0xce, 0x9f, 0xba, 0x1f, 0x35,
  0x04, 0x3c, 0x78, 0x7d, 0x31, 0x3e, 0x51, 0x08, 0x37, 0x3e, 0x12, 0xd3,
  0x20, 0x3d, 0xad, 0x01, 0x72, 0x3d, 0xb8, 0x28, 0xf3, 0x3d, 0xa3, 0x79,
  0x67, 0xbc, 0xc1, 0x5f, 0x97, 0xbd, 0x04, 0x7a, 0x0b, 0xbd, 0xcf, 0xdc,
  0xbf, 0x3c, 0x4d, 0x22, 0xf4, 0xbd, 0xe4, 0x48, 0xab, 0x3e, 0x58, 0xd9,
  0xb2, 0xbf, 0xba, 0x1e, 0x21, 0x3e, 0xd3, 0xc1, 0x48, 0x3e, 0x9b, 0xc5,
  0x03, 0x3e, 0x65, 0x02, 0xf4, 0x3e, 0xc5, 0xc2, 0xfd, 0x3d, 0x14, 0xa3,
  0xab, 0xbd, 0x0c, 0x15, 0xf5, 0x10, 0x00, 0xdc, 0xa0, 0xbc, 0x57, 0x3b,
  0x34, 0xbe, 0x8b, 0xea, 0x9e, 0x3d, 0xa4, 0x3e, 0xc0, 0x3e, 0xdd, 0x87,
  0xb5, 0xbd, 0x34, 0xd7, 0xdb, 0xbe, 0x3b, 0x53, 0x92, 0x3d, 0xdf, 0xfa,
  0xb2, 0xba, 0x25, 0x60, 0x8f, 0x9f, 0x8a, 0x82, 0xb7, 0x3e, 0xe6, 0xf1,
  0xb2, 0x3e, 0x5c, 0x0d, 0x96, 0x3e, 0xe3, 0x8a, 0x1b, 0xbc, 0xeb, 0xdc,
  0x39, 0xbe, 0x53, 0x07, 0x62, 0xbe, 0xc7, 0xce, 0x3a, 0x3e, 0xbf, 0xf8,
  0xf2, 0xbd, 0x62, 0xba, 0xda, 0x3d, 0xb0, 0x28, 0x0e, 0x3e, 0xf3, 0xaa,
  0x80, 0x3b, 0xf0, 0x1b, 0x0d, 0xbd, 0x41, 0x58, 0xf4, 0x3c, 0xfb, 0xff,
  0x32, 0xbd, 0xda, 0xf5, 0x28, 0x3e, 0x61, 0xff, 0x9d, 0xbf, 0x96, 0x89,
  0x83, 0x3e, 0x03, 0x44, 0x36, 0x3e, 0xc9, 0x0c, 0x45, 0x3d, 0xe9, 0xa9,
  0xe9, 0x3e, 0x97, 0x70, 0x41, 0x3e, 0xd5, 0x15, 0x77, 0x3e, 0x1e, 0x28,
  0x02, 0x80, 0xa6, 0x56, 0xa1, 0xbc, 0xee, 0x4a, 0xb3, 0x3b, 0xbf, 0x8a,
  0x1a, 0x3d, 0x8c, 0x54, 0xcb, 0x3e, 0x48, 0xfd, 0x1f, 0x3c, 0x0b, 0xe7,
  0xbc, 0xbe, 0x16, 0x8f, 0xd7, 0x3d, 0x8f, 0x48, 0x33, 0xba, 0x31, 0xcf,
  0x06, 0x80, 0xb8, 0xb7, 0xaa, 0x3e, 0xb2, 0xfb, 0x2f, 0x3e, 0x43, 0xe0,
  0x03, 0x3e, 0x15, 0x4a, 0x21, 0xbc, 0x63, 0x22, 0x2b, 0xbe, 0x1d, 0x98,
  0x5b, 0xbe, 0x80, 0x59, 0x8e, 0x3a, 0x23, 0x8c, 0x31, 0x3e, 0x85, 0x1f,
  0x45, 0xbd, 0x2b, 0x1b, 0xea, 0xbb, 0xd1, 0x58, 0x5d, 0x3e, 0xda, 0x45,
  0x07, 0x3d, 0x22, 0x2f, 0xf0, 0xbc, 0x79, 0x8a, 0xd9, 0x3d, 0x19, 0xb8,
  0x52, 0xbe, 0xa4, 0x0d, 0xaa, 0x3f, 0x8a, 0x43, 0x4c, 0x3d, 0xcb, 0x41,
  0x8c, 0x3d, 0x3c, 0xc1, 0xae, 0x3d, 0x37, 0xd0, 0xec, 0xbe, 0x4b, 0x56,
  0xf2, 0x3d, 0x02, 0x25, 0x4f, 0x3e, 0x14, 0x26, 0x25, 0xa0, 0xb4, 0x79,
  0x9c, 0x3c, 0x7b, 0x70, 0x73, 0x3e, 0x33, 0xb9, 0x03, 0x3e, 0x45, 0x52,
  0x84, 0xbe, 0x73, 0x72, 0x91, 0x3e, 0x14, 0x35, 0xcb, 0x3e, 0x26, 0x3a,
  0x2a, 0xbc, 0x7c, 0x06, 0xd2, 0x3a, 0xe8, 0x48, 0x2a, 0x29, 0xf1, 0x78,
  0x1f, 0xbe, 0x0e, 0x63, 0x28, 0xbe, 0x6e, 0x40, 0x12, 0x3c, 0xa3, 0x0c,
  0x07, 0x3c, 0xcc, 0xad, 0x31, 0x3e, 0xd4, 0x9d, 0x4c, 0x3e, 0x31, 0x78,
  0xb8, 0x3d, 0x8e, 0x83, 0x12, 0x3e, 0x0c, 0xa8, 0x8d, 0x3d, 0xac, 0xad,
  0xc3, 0x3c, 0xb1, 0xdb, 0xca, 0x3d, 0xba, 0xb2, 0x05, 0x3d, 0xc0, 0x11,
  0x65, 0xbc, 0x37, 0x10, 0x4f, 0x3e, 0x83, 0xa0, 0x13, 0xbe, 0xa2, 0x6f,
  0x82, 0x3f, 0x24, 0x11, 0x22, 0xbd, 0x00, 0x1c, 0xe7, 0xbd, 0xca, 0x1e,
  0x4c, 0xbd, 0x1e, 0x32, 0x35, 0xbe, 0x9f, 0xbc, 0x91, 0x3b, 0xe7, 0xc1,
  0xdb, 0x3d, 0xb9, 0x06, 0x3b, 0x89, 0x74, 0x63, 0x9b, 0x3c, 0xdb, 0xb2,
  0x8d, 0x3e, 0x2f, 0x74, 0xb6, 0x3d, 0x53, 0xe4, 0xaa, 0xbd, 0x6a, 0xaa,
  0xa3, 0x3d, 0x36, 0xbe, 0xfb, 0x3e, 0x51, 0xcd, 0x26, 0x3c, 0xe1, 0x9c,
  0x9f, 0x3a, 0xd9, 0x0d, 0x49, 0x1a, 0x95, 0x23, 0x59, 0xbe, 0xb7, 0xb8,
  0xb9, 0xbd, 0xc0, 0xbc, 0x4c, 0xbb, 0x6b, 0xde, 0x03, 0x3c, 0xd6, 0xd6,
  0x3f, 0x3e, 0xae, 0x0e, 0x4b, 0x3c, 0x1b, 0xfb, 0x01, 0x3e, 0x51, 0x48,
  0xb0, 0xbd, 0x2a, 0x13, 0x93, 0xbd, 0xfc, 0x57, 0xca, 0x3d, 0x15, 0x13,
  0x3e, 0x3c, 0xdd, 0x71, 0x07, 0xbd, 0xb5, 0xdf, 0x9d, 0x3c, 0x7c, 0x1b,
  0x96, 0xbb, 0xe7, 0x06, 0x55, 0x3e, 0x66, 0x90, 0xb8, 0xbf, 0x50, 0x99,
  0xc9, 0x3d, 0x8c, 0x35, 0xbd, 0x3e, 0xdd, 0x24, 0x9a, 0x3e, 0x93, 0xe0,
  0xf1, 0x3e, 0x30, 0xe8, 0x52, 0x3d, 0xc4, 0x10, 0x15, 0x3e, 0x1c, 0x31,
  0x0d, 0x13, 0x07, 0x4c, 0x9b, 0xbc, 0xa0, 0xe5, 0x6f, 0xbd, 0x49, 0xd9,
  0x1e, 0xbe, 0x36, 0x70, 0xba, 0x3e, 0x74, 0xc3, 0x4c, 0xbe, 0xb1, 0x96,
  0xf2, 0xbe, 0x08, 0x5f, 0x85, 0x3e, 0x0b, 0x3b, 0xb7, 0xba, 0x0d, 0xe8,
  0xeb, 0xa0, 0xff, 0xd7, 0xb4, 0x3e, 0x3a, 0x79, 0x97, 0x3e, 0x94, 0xd7,
  0xa8, 0x3e, 0x72, 0x3d, 0x0d, 0xbc, 0x91, 0xd1, 0x3e, 0xbe, 0x6f, 0xfd,
  0x56, 0xbe, 0xc1, 0x6a, 0x06, 0xbc, 0x78, 0x41, 0xa1, 0xbd, 0xeb, 0x81,
  0xe8, 0x3d, 0x31, 0x02, 0x14, 0x3e, 0x3a, 0xc9, 0xdc, 0xbd, 0x0c, 0x02,
  0x02, 0xbd, 0x52, 0x25, 0x02, 0x3d, 0x2a, 0x75, 0x03, 0xbe, 0x75, 0x47,
  0x91, 0x3e, 0xbe, 0x3a, 0xb9, 0xbf, 0x50, 0xb5, 0xeb, 0x3d, 0x82, 0x6d,
  0x3d, 0x3e, 0xc0, 0xe1, 0x23, 0x3e, 0x8e, 0xde, 0x03, 0x3f, 0xf9, 0x7a,
  0x8a, 0x3d, 0x26, 0xff, 0x6d, 0xbc, 0xb7, 0x27, 0xbc, 0x28, 0xf8, 0x0b,
  0x94, 0xbc, 0x28, 0xcd, 0x0e, 0xbe, 0xaa, 0x4a, 0x0f, 0x3d, 0x3d, 0xaf,
  0x70, 0x3e, 0x48, 0x5a, 0x53, 0xbd, 0x5b, 0xb6, 0xd4, 0xbe, 0xec, 0x91,
  0xcd, 0x3d, 0x7f, 0xa1, 0xec, 0xba, 0xa2, 0x53, 0xf9, 0xae, 0x36, 0xfd,
  0xbf, 0x3e, 0x21, 0x67, 0x32, 0x3e, 0x21, 0x86, 0x5f, 0x3e, 0xfd, 0xdb,
  0xed, 0xbb, 0x23, 0x54, 0x35, 0xbe, 0x7c, 0xeb, 0x29, 0xbe, 0x2c, 0x2b,
  0xbf, 0x3b, 0x0c, 0xab, 0xf0, 0x3d, 0x32, 0xbe, 0xd2, 0x3d, 0x3b, 0x8c,
  0xd4, 0xbc, 0x20, 0x31, 0x97, 0x3e, 0x8d, 0xd7, 0x09, 0x3d, 0x5b, 0xf6,
  0xaa, 0xbc, 0xe0, 0xf8, 0x94, 0x3e, 0x8a, 0x52, 0x32, 0xbe, 0x16, 0x53,
  0xc3, 0x3f, 0x7e, 0x93, 0x30, 0x3d, 0x28, 0xd6, 0x52, 0xbe, 0xdd, 0x43,
  0x79, 0xbe, 0x1d, 0xc9, 0x00, 0xbf, 0xcb, 0x8c, 0xd2, 0x3d, 0x60, 0x40,
  0x1c, 0x3e, 0xec, 0x68, 0x04, 0xaf, 0x18, 0x0a, 0xa0, 0x3c, 0xbf, 0xb6,
  0x04, 0x3e, 0xa7, 0x1a, 0x3e, 0x3e, 0x40, 0xf3, 0x57, 0xbe, 0xb0, 0xd7,
  0xd4, 0x3d, 0x6e, 0x68, 0xe9, 0x3e, 0xdb, 0x5d, 0x98, 0xbd, 0xf4, 0x29,
  0x02, 0x3b, 0x3e, 0x37, 0x26, 0x33, 0x68, 0xd6, 0x6b, 0xbe, 0xe4, 0x3c,
  0x70, 0xbe, 0xcd, 0x77, 0x8f, 0xbd, 0x0a, 0x43, 0x0f, 0x3c, 0x05, 0xa2,
  0x3c, 0x3e, 0x97, 0x18, 0xe0, 0x3d, 0xde, 0x73, 0xd3, 0x39, 0xb5, 0x8d,
  0x6c, 0xbb, 0xcd, 0x52, 0x86, 0xba, 0xc3, 0xf3, 0xb5, 0xb9, 0x5d, 0x48,
  0x32, 0x3b, 0xad, 0xe3, 0x45, 0xba, 0x17, 0x8e, 0x58, 0xb6, 0xfc, 0x39,
  0x40, 0xba, 0x91, 0x09, 0xdd, 0x38, 0xe0, 0x53, 0x89, 0xba, 0xc5, 0xb8,
  0xb8, 0x3a, 0x3a, 0x78, 0xbf, 0xbb, 0xde, 0xa3, 0xff, 0xba, 0x10, 0xb6,
  0xf5, 0xba, 0x31, 0xcc, 0xfc, 0x3a, 0x25, 0xae, 0x93, 0x3a, 0x13, 0x58,
  0x08, 0x80, 0x3e, 0x8f, 0x0e, 0x3b, 0x94, 0x87, 0x19, 0xbb, 0xda, 0x9c,
  0xe6, 0xb9, 0x0a, 0x07, 0xce, 0xb9, 0x83, 0xde, 0x06, 0x3b, 0xf0, 0xa8,
  0xd1, 0xb9, 0x0c, 0x9b, 0x0c, 0xbb, 0x90, 0xd5, 0x03, 0x80, 0xa0, 0x88,
  0x07, 0x80, 0xf4, 0x8a, 0xd3, 0x3a, 0xfc, 0xd6, 0xea, 0xba, 0xf7, 0x18,
  0xf4, 0xba, 0x43, 0x13, 0xc5, 0xb9, 0x85, 0xc8, 0xbf, 0xb8, 0x0c, 0xdb,
  0xa1, 0x38, 0x24, 0x83, 0xf6, 0x3d, 0xf2, 0x7b, 0x33, 0x3d, 0xf6, 0xbd,
  0x48, 0x3e, 0x1f, 0x15, 0x64, 0x3e, 0x8f, 0xb7, 0x4a, 0x3d, 0xa6, 0xf0,
  0x0a, 0xbd, 0xf3, 0x60, 0xb7, 0x3c, 0x1f, 0x81, 0x2d, 0xbe, 0x01, 0x79,
  0x15, 0x3e, 0xeb, 0xbd, 0xaf, 0xbf, 0x35, 0x36, 0x18, 0x3e, 0xc4, 0x84,
  0x5a, 0x3e, 0xf2, 0xd4, 0x2b, 0x3e, 0xf9, 0xc6, 0xed, 0x3e, 0x71, 0x15,
  0xeb, 0x3d, 0x64, 0x47, 0x42, 0x3e, 0xf5, 0x8e, 0xf3, 0x18, 0x44, 0xad,
  0x9f, 0xbc, 0x9a, 0xe2, 0x9a, 0xbd, 0x8b, 0xb0, 0x13, 0x3e, 0x5c, 0x27,
  0xa6, 0x3e, 0x66, 0x64, 0x78, 0xbd, 0xee, 0x39, 0xe1, 0xbe, 0xf8, 0x83,
  0x27, 0x3d, 0xda, 0x9f, 0xbe, 0xba, 0x7d, 0x26, 0x9b, 0xa4, 0xb5, 0x04,
  0xb4, 0x3e, 0xb3, 0xe7, 0xaa, 0x3e, 0xf2, 0xe6, 0x57, 0x3e, 0x84, 0xce,
  0x15, 0xbc, 0x34, 0xee, 0x37, 0xbe, 0x11, 0xd4, 0x6f, 0xbe, 0x3f, 0xee,
  0xaf, 0x3c, 0x51, 0xba, 0x68, 0xba, 0x28, 0xaa, 0xa2, 0x3b, 0x4a, 0x15,
  0x8a, 0x3b, 0xc7, 0xe6, 0x24, 0x3d, 0xfe, 0xf5, 0xf0, 0x3c, 0x65, 0x73,
  0x8d, 0x3b, 0x31, 0x04, 0x12, 0x3d, 0x18, 0xfb, 0xff, 0xbc, 0x73, 0x39,
  0x8e, 0x3d, 0x60, 0xc4, 0x30, 0xbc, 0x60, 0x07, 0xd9, 0xbd, 0xdd, 0xa1,
  0x34, 0xbd, 0xf7, 0x90, 0x5e, 0xbd, 0xcb, 0xaf, 0x80, 0xba, 0xfe, 0x94,
  0x0d, 0x3d, 0x9c, 0xd3, 0x00, 0x00, 0xea, 0x73, 0xb3, 0x3c, 0x16, 0x2a,
  0x65, 0x3d, 0xcb, 0x59, 0x86, 0x3c, 0x8b, 0x3a, 0xd2, 0xbc, 0x4a, 0xeb,
  0xb8, 0x3c, 0x27, 0xb9, 0x0f, 0x3e, 0xff, 0x01, 0x8e, 0xbc, 0x35, 0x03,
  0x89, 0xb5, 0xd2, 0xb4, 0x00, 0x80, 0x9f, 0x39, 0xc9, 0xbc, 0x9a, 0xbc,
  0x42, 0xbd, 0x49, 0xc2, 0x3d, 0xbc, 0x68, 0x9b, 0xb9, 0x3c, 0x64, 0x33,
  0xd2, 0x3d, 0x51, 0xce, 0xdc, 0xbb, 0xd6, 0xf7, 0x1f, 0xbe, 0xcd, 0x5d,
  0x2b, 0xbe, 0xbb, 0xd9, 0x27, 0x3e, 0x38, 0xcf, 0xde, 0x3c, 0x9c, 0x73,
  0x36, 0x3d, 0x0b, 0x9d, 0xfe, 0xbc, 0x5b, 0x7d, 0xf4, 0x3c, 0x08, 0x96,
  0x76, 0xbe, 0x31, 0x95, 0xbf, 0x3e, 0x7b, 0x7b, 0xb6, 0xbf, 0xf1, 0x85,
  0x22, 0x3e, 0xc1, 0x85, 0x55, 0x3e, 0xcd, 0xd7, 0x64, 0x3c, 0x22, 0x78,
  0xf0, 0x3e, 0xfa, 0x2f, 0xd4, 0x3d, 0x0e, 0xda, 0x0d, 0x3e, 0x16, 0xa4,
  0x80, 0x22, 0x28, 0x32, 0x8f, 0xbc, 0x28, 0xdb, 0x5d, 0xbe, 0x8e, 0xf6,
  0x08, 0x3e, 0xef, 0x27, 0x9a, 0x3d, 0xbd, 0xb0, 0x28, 0xbe, 0x6c, 0x8c,
  0xe5, 0xbe, 0x6c, 0x85, 0x6f, 0x3e, 0x4d, 0xa1, 0xd7, 0xba, 0x3f, 0x5f,
  0xbc, 0xaa, 0x28, 0x00, 0xbf, 0x3e, 0xb6, 0xa1, 0xa8, 0x3e, 0xbe, 0xde,
  0xc3, 0x3e, 0x32, 0x83, 0xe1, 0xbb, 0x95, 0x0a, 0x39, 0xbe, 0xcd, 0x61,
  0x42, 0xbe, 0xf4, 0x9f, 0x25, 0x3e, 0x88, 0x13, 0x8c, 0x3d, 0xa8, 0x81,
  0x26, 0x3e, 0xeb, 0xc5, 0xc5, 0xbc, 0x18, 0x6e, 0x35, 0xbe, 0x97, 0xb7,
  0x0b, 0xbd, 0x0d, 0x9f, 0x18, 0x3d, 0xa5, 0x33, 0x7f, 0x3c, 0x59, 0x30,
  0xc4, 0x3d, 0xd7, 0xa3, 0x9c, 0xbf, 0x63, 0x46, 0x8c, 0x3e, 0xd5, 0xa2,
  0x6a, 0x3d, 0x04, 0x48, 0x3f, 0x3e, 0x1d, 0xc9, 0xe7, 0x3e, 0x79, 0x31,
  0x2c, 0x3e, 0x4d, 0x9c, 0x61, 0x3e, 0x73, 0x98, 0x02, 0x00, 0x7c, 0x2b,
  0xa0, 0xbc, 0xcf, 0xd2, 0xcd, 0xbd, 0x61, 0x6c, 0x1a, 0xbd, 0x06, 0x5d,
  0xd4, 0x3e, 0xf6, 0x5a, 0x20, 0x3e, 0x4e, 0x98, 0xb1, 0xbe, 0xb6, 0xbb,
  0x10, 0x3e, 0xa6, 0x3c, 0x86, 0xba, 0x9b, 0x11, 0x51, 0x92, 0x7d, 0x02,
  0xb3, 0x3e, 0x56, 0xf0, 0xb1, 0x3e, 0xa6, 0x7f, 0x1e, 0x3e, 0x50, 0xcf,
  0x1a, 0xbc, 0x23, 0xa3, 0x27, 0xbe, 0x97, 0x78, 0x60, 0xbe, 0x38, 0x8c,
  0xd3, 0xbc, 0xb3, 0xa1, 0x7b, 0x3e, 0xdf, 0xe5, 0xf1, 0x3d, 0xc3, 0xa9,
  0x1e, 0xbd, 0x2e, 0xc0, 0x1c, 0x3e, 0x12, 0x4e, 0x16, 0x3d, 0x86, 0x81,
  0x90, 0xbc, 0xca, 0x93, 0xb7, 0x3e, 0xf3, 0xdc, 0x80, 0xbe, 0x89, 0xd3,
  0xb8, 0x3f, 0x39, 0xec, 0x09, 0xbd, 0x27, 0xf6, 0x22, 0xbe, 0x09, 0x0b,
  0x15, 0xbe, 0x79, 0xa7, 0xca, 0xbe, 0x58, 0x32, 0x28, 0x3c, 0xa9, 0x88,
  0x06, 0x3e, 0x62, 0xef, 0x7a, 0xb1, 0xd3, 0xdf, 0xae, 0x3c, 0xed, 0x61,
  0xa0, 0x3e, 0x0d, 0x9d, 0xec, 0x3d, 0xe5, 0x1a, 0x74, 0xbe, 0x7c, 0x91,
  0x7b, 0x3d, 0x84, 0x10, 0xe5, 0x3e, 0x2b, 0x2c, 0x3c, 0xbe, 0x92, 0x39,
  0x0c, 0x3b, 0xe5, 0xe1, 0xf0, 0x34, 0xf9, 0xc3, 0x99, 0xbe, 0x93, 0xa5,
  0x0c, 0xbe, 0x51, 0x9e, 0x08, 0xbe, 0x21, 0x2f, 0x3d, 0x3c, 0xb6, 0x86,
  0x3f, 0x3e, 0x45, 0xc6, 0x20, 0x3d, 0x2c, 0xa5, 0x73, 0x3c, 0xfd, 0x52,
  0x7a, 0x3c, 0xb4, 0xd5, 0x6e, 0x3c, 0x34, 0x49, 0x65, 0x3c, 0x44, 0x4d,
  0x6d, 0x3c, 0x9c, 0xf9, 0x62, 0x3c, 0x72, 0xe8, 0x5f, 0x3c, 0x04, 0xf5,
  0x82, 0x3c, 0x30, 0xcd, 0x4e, 0x3c, 0x09, 0xb5, 0x91, 0x3c, 0x00, 0x3e,
  0x5c, 0x3c, 0x8f, 0x2d, 0x29, 0x3c, 0x9b, 0x05, 0x60, 0x3c, 0x85, 0x75,
  0x3a, 0x3c, 0xc2, 0xeb, 0x64, 0x3c, 0x93, 0x3c, 0x63, 0x3c, 0x6f, 0x24,
  0x06, 0x00, 0x46, 0x7a, 0x58, 0x3c, 0xd9, 0xfe, 0x83, 0x3c, 0x05, 0x21,
  0x75, 0x3c, 0xfc, 0xa6, 0x55, 0x3c, 0x55, 0xa6, 0x76, 0x3c, 0x00, 0x1c,
  0x91, 0x3c, 0x88, 0x3c, 0x66, 0x3c, 0xd2, 0xfe, 0x07, 0x80, 0x07, 0x24,
  0x07, 0x00, 0xa5, 0xf3, 0x1e, 0x3c, 0x95, 0x0f, 0x53, 0x3c, 0x13, 0x01,
  0x54, 0x3c, 0x15, 0x32, 0x05, 0x3c, 0x96, 0x1a, 0x7d, 0x3c, 0x63, 0x07,
  0x76, 0x3c, 0x78, 0xb0, 0x8c, 0xbc, 0xb9, 0xb8, 0x33, 0xbc, 0x4a, 0x88,
  0x74, 0x3c, 0x2b, 0x0a, 0xeb, 0x3d, 0xcc, 0xb7, 0x2a, 0x3d, 0x38, 0x6e,
  0x0a, 0xbd, 0x95, 0xdf, 0xd9, 0x3c, 0x71, 0x9c, 0xfc, 0xbd, 0xdc, 0x96,
  0x8d, 0x3e, 0x74, 0x31, 0xaf, 0xbf, 0xe2, 0x4e, 0x18, 0x3e, 0x38, 0x46,
  0xf0, 0x3d, 0xc3, 0x31, 0x38, 0x3e, 0x40, 0x9e, 0xf3, 0x3e, 0xe4, 0xe8,
  0x6f, 0x3e, 0xee, 0x2d, 0x32, 0xbd, 0xbb, 0x3a, 0xfd, 0x23, 0x4c, 0xa9,
  0x9f, 0xbc, 0x1b, 0x74, 0xcd, 0xbd, 0xde, 0xa0, 0x03, 0x3e, 0x26, 0x22,
  0x6f, 0x3e, 0xb4, 0x86, 0xe1, 0xbd, 0x52, 0xaa, 0xd5, 0xbe, 0xd8, 0xd6,
  0xd1, 0x3d, 0xfb, 0xd6, 0xdf, 0xba, 0xa7, 0xb8, 0xcb, 0xab, 0xf7, 0x7d,
  0xb0, 0x3e, 0xec, 0xd6, 0x83, 0x3e, 0x76, 0xec, 0x71, 0x3e, 0x43, 0x04,
  0x15, 0xbc, 0x14, 0x88, 0x37, 0xbe, 0xe0, 0xc8, 0x52, 0xbe, 0x04, 0x14,
  0x26, 0x3e, 0x7f, 0xd7, 0x52, 0x3e, 0x8b, 0x10, 0x1f, 0x3e, 0x66, 0x4e,
  0x03, 0x3e, 0xdc, 0x07, 0x25, 0x3e, 0x42, 0xe9, 0xdd, 0x3c, 0x92, 0x47,
  0x1f, 0x3d, 0x26, 0xc1, 0x67, 0x3e, 0x69, 0x03, 0x14, 0x3d, 0xde, 0xef,
  0x0a, 0x3f, 0x5d, 0x89, 0xb5, 0x3d, 0xca, 0x47, 0x8f, 0x3d, 0x16, 0xc4,
  0xb9, 0x3d, 0x43, 0x4f, 0xe9, 0x3c, 0x72, 0xe4, 0xee, 0x3d, 0xbd, 0xb2,
  0x2a, 0x3e, 0x37, 0x81, 0x06, 0x80, 0x1b, 0xa9, 0x83, 0x3c, 0x8d, 0x87,
  0x8c, 0x3e, 0x8b, 0x1b, 0x29, 0x3e, 0xe0, 0xba, 0x95, 0x3d, 0x08, 0x87,
  0x1d, 0x3e, 0x4f, 0x4e, 0xc3, 0x3e, 0xb7, 0xef, 0x01, 0x3e, 0xd1, 0x4c,
  0x37, 0x37, 0x5f, 0x8e, 0x01, 0x00, 0x21, 0xad, 0x07, 0xbc, 0xb9, 0x07,
  0x87, 0x3d, 0x0f, 0x5b, 0xec, 0x3d, 0x0b, 0xc9, 0x44, 0x3b, 0x82, 0x5d,
  0x46, 0x3e, 0xa5, 0x5c, 0x00, 0x3e, 0xd9, 0x72, 0x4f, 0x3e, 0x17, 0xb0,
  0x4a, 0x3e, 0xc3, 0x0b, 0x34, 0x3e, 0x2f, 0x9a, 0x17, 0x3e, 0x83, 0x0b,
  0x52, 0x3e, 0xec, 0x14, 0x04, 0x3d, 0x07, 0x76, 0x32, 0xbc, 0x8d, 0x37,
  0x93, 0x3e, 0xb2, 0xf6, 0x2a, 0xbc, 0x51, 0x2d, 0x55, 0x3f, 0xb3, 0x2d,
  0xa9, 0x3d, 0x2c, 0x50, 0xcb, 0xbd, 0x27, 0x9f, 0x0a, 0x3d, 0x7c, 0x18,
  0x90, 0xbd, 0xfa, 0x42, 0xfa, 0x3d, 0xea, 0x28, 0x72, 0x3e, 0x59, 0xdd,
  0x06, 0x80, 0x3a, 0xff, 0x98, 0x3c, 0x56, 0x23, 0xb7, 0x3e, 0x5c, 0xe2,
  0x49, 0x3e, 0x70, 0xed, 0x16, 0x3d, 0xeb, 0xb4, 0x3e, 0x3e, 0xef, 0x4d,
  0x07, 0x3f, 0x33, 0xfe, 0xde, 0x3d, 0x03, 0x01, 0x6c, 0x3a, 0x59, 0x9f,
  0x48, 0x0d, 0xcc, 0x30, 0xc0, 0xbc, 0xa9, 0x5f, 0x80, 0x3b, 0xac, 0x0b,
  0xec, 0x3d, 0xaf, 0xeb, 0xf3, 0x3b, 0xce, 0xe2, 0x3a, 0x3e, 0x07, 0xfe,
  0xe4, 0x3d, 0x07, 0xf9, 0x33, 0x3c, 0xe8, 0xa1, 0x93, 0x3c, 0xfd, 0xe6,
  0xe3, 0x3b, 0xfe, 0x51, 0x78, 0x3a, 0xa6, 0x43, 0x35, 0x3c, 0x4f, 0xa0,
  0x2b, 0x3b, 0xb5, 0xd3, 0x24, 0xbc, 0x5c, 0xac, 0xe5, 0x3c, 0xf6, 0x1d,
  0xd0, 0xbc, 0xea, 0x13, 0xc9, 0x3d, 0x6d, 0x3b, 0x83, 0xbc, 0x56, 0x69,
  0xfc, 0xbc, 0x62, 0x17, 0xa0, 0xbc, 0x6d, 0x78, 0xe3, 0xbc, 0x42, 0x93,
  0x0b, 0xbc, 0x78, 0x8e, 0x83, 0x3c, 0x85, 0x69, 0x07, 0x00, 0xa0, 0x55,
  0x63, 0x3b, 0x65, 0x94, 0x48, 0x3d, 0x01, 0x56, 0x37, 0x3c, 0xd8, 0x67,
  0x87, 0xbc, 0xfb, 0x97, 0xaf, 0x3b, 0x4f, 0x22, 0xee, 0x3d, 0x2d, 0xa8,
  0x58, 0xbb, 0x37, 0xa6, 0xd8, 0x30, 0xcf, 0x5f, 0x05, 0x00, 0xc8, 0x90,
  0x0e, 0xbd, 0x04, 0x9a, 0xc3, 0xbc, 0x9f, 0x99, 0x9c, 0xba, 0x3a, 0x2f,
  0xb0, 0x3b, 0x5d, 0x53, 0xb9, 0x3d, 0x4c, 0x18, 0xa3, 0xbb, 0x93, 0xf7,
  0x50, 0xbd, 0xc8, 0x20, 0xc6, 0x3d, 0xe8, 0xcd, 0x91, 0x3d, 0x06, 0x57,
  0x6b, 0xbd, 0x7b, 0xcd, 0x7b, 0xbd, 0x0a, 0x2d, 0xf6, 0xbc, 0xc1, 0xae,
  0xfd, 0x3c, 0xc8, 0x27, 0x15, 0xbc, 0xfd, 0x5f, 0x0f, 0x3e, 0x9a, 0x17,
  0xb0, 0xbf, 0x5c, 0x1a, 0xc2, 0x3d, 0x6b, 0xa0, 0x31, 0x3e, 0xed, 0x4c,
  0x05, 0x3e, 0x3c, 0x2d, 0xec, 0x3e, 0x5e, 0xba, 0x66, 0x3c, 0x02, 0xb5,
  0x7f, 0x3d, 0xf6, 0x23, 0x29, 0x13, 0x34, 0xad, 0x86, 0xbc, 0xbb, 0x41,
  0xc2, 0xbc, 0x2f, 0x63, 0xd9, 0xbd, 0x56, 0xd1, 0xdf, 0x3d, 0xae, 0xb1,
  0xbb, 0xbd, 0x81, 0xc1, 0xe7, 0xbe, 0xf5, 0x29, 0x88, 0x3e, 0x60, 0x90,
  0xa9, 0xba, 0x46, 0xd1, 0xe3, 0xa0, 0xb1, 0xd9, 0xb8, 0x3e, 0xff, 0x81,
  0x71, 0x3e, 0xc1, 0xea, 0xbc, 0x3e, 0x4b, 0x57, 0xd2, 0xbb, 0xfe, 0x0c,
  0x38, 0xbe, 0x98, 0x67, 0x4a, 0xbe, 0x31, 0x3b, 0x0a, 0x3e, 0x91, 0x70,
  0x3b, 0x3d, 0x16, 0xae, 0xfb, 0x3d, 0x45, 0xc8, 0x27, 0x3e, 0x6a, 0xaa,
  0x4a, 0xbe, 0x52, 0x15, 0x0c, 0xbd, 0xa7, 0x9f, 0xf2, 0x3c, 0xf4, 0xf3,
  0x69, 0xbe, 0xe1, 0x33, 0xa2, 0x3e, 0xa7, 0x1d, 0xa6, 0xbf, 0xd7, 0xc1,
  0x06, 0x3e, 0xeb, 0x31, 0x9b, 0x3e, 0xe3, 0x89, 0x8b, 0x3e, 0xef, 0x6f,
  0xe6, 0x3e, 0xe1, 0x6e, 0x10, 0x3e, 0xf8, 0x74, 0x79, 0x3e, 0x30, 0x8e,
  0x03, 0x00, 0xbd, 0xca, 0xa0, 0xbc, 0x4d, 0xcc, 0x87, 0xbe, 0xd8, 0x6d,
  0x36, 0x3e, 0xb3, 0xbf, 0xbe, 0x3d, 0xf4, 0x15, 0x19, 0x3e, 0x5e, 0x5d,
  0xc3, 0xbe, 0x99, 0x82, 0x48, 0x3d, 0x90, 0xf7, 0x7d, 0xba, 0xeb, 0xb0,
  0x7a, 0x8d, 0x71, 0x4f, 0xb2, 0x3e, 0x74, 0xe2, 0x15, 0x3e, 0x5c, 0xce,
  0xc0, 0x3e, 0xef, 0x2c, 0x1e, 0xbc, 0x0f, 0x31, 0x30, 0xbe, 0x8f, 0x44,
  0x57, 0xbe, 0x6d, 0x60, 0x42, 0x3e, 0x31, 0x85, 0x83, 0x3e, 0x09, 0x7c,
  0x06, 0x3e, 0xf8, 0xec, 0xa4, 0x3d, 0xd1, 0xbd, 0x8c, 0x3e, 0x7d, 0xc1,
  0x06, 0x3d, 0x3f, 0xd8, 0xd2, 0xbc, 0xfb, 0xef, 0x9c, 0x3e, 0xf1, 0xef,
  0x8d, 0xbd, 0x75, 0xf1, 0xab, 0x3f, 0x28, 0xbf, 0xa8, 0x3d, 0xd7, 0xc1,
  0x57, 0x3c, 0x00, 0xd3, 0xa0, 0x3d, 0xfb, 0xe1, 0xef, 0xbe, 0xa8, 0xdc,
  0xfd, 0x3d, 0x98, 0x35, 0x1d, 0x3e, 0x57, 0xd8, 0x1a, 0x9b, 0xc8, 0xb1,
  0x9b, 0x3c, 0x6c, 0x7e, 0x9f, 0x3e, 0x9c, 0x76, 0x32, 0x3e, 0xa6, 0x81,
  0xd1, 0xbc, 0xb9, 0x3e, 0x77, 0x3e, 0xc3, 0x2d, 0xd5, 0x3e, 0x78, 0xd4,
  0xa0, 0x3d, 0x73, 0xb5, 0xc1, 0x3a, 0x1a, 0x7b, 0xd5, 0x25, 0x46, 0x8b,
  0x1c, 0xbe, 0x39, 0x43, 0x6e, 0x3c, 0xf9, 0x39, 0x53, 0xbc, 0x76, 0xe9,
  0x03, 0x3c, 0x31, 0xb4, 0x32, 0x3e, 0x99, 0xc9, 0x1c, 0x3e, 0x2a, 0x90,
  0x01, 0x08, 0x20, 0x10, 0x01, 0x42, 0x07, 0x6c, 0x32, 0x2e, 0x62, 0x69,
  0x61, 0x73, 0x4a, 0x80, 0x01, 0x8f, 0xe8, 0x5d, 0xb6, 0xe8, 0xf3, 0x56,
  0xb3, 0x2b, 0x2c, 0x79, 0xb8, 0xa9, 0x08, 0x31, 0xbe, 0xac, 0xa3, 0x12,
  0x3e, 0x78, 0xc6, 0x7c, 0x3e, 0x0a, 0x83, 0x17, 0xbd, 0xb2, 0x74, 0xc5,
  0xbd, 0x1f, 0xc7, 0xf2, 0x3d, 0x67, 0x7a, 0xd1, 0x39, 0x51, 0xad, 0x6e,
  0x3e, 0x3a, 0xb8, 0x00, 0x3d, 0x51, 0x22, 0xdf, 0x3d, 0x75, 0x43, 0xff,
  0x3c, 0x7c, 0x31, 0x06, 0x3e, 0xca, 0xdf, 0x10, 0xbe, 0x15, 0x56, 0xe8,
  0xbd, 0xc6, 0xd9, 0x8c, 0xbc, 0x1e, 0x9e, 0xb6, 0xb9, 0x47, 0x4d, 0x32,
  0x3d, 0x4c, 0xa9, 0xb3, 0x3c, 0x15, 0x75, 0x37, 0x3d, 0xff, 0x3d, 0xba,
  0xbc, 0x72, 0x99, 0xb0, 0x3d, 0x87, 0x7a, 0x7b, 0x3c, 0x52, 0xfa, 0xd3,
  0xbd, 0xc1, 0xcf, 0x3b, 0x3e, 0x33, 0x3a, 0x6b, 0x3e, 0xdf, 0x1d, 0x6a,
  0x3c, 0xcc, 0x45, 0x1c, 0x3d, 0xb1, 0xda, 0xdc, 0xbd, 0x09, 0xcb, 0x76,
  0x3e, 0x2a, 0x94, 0x03, 0x08, 0x03, 0x08, 0x20, 0x10, 0x01, 0x42, 0x09,
  0x6c, 0x33, 0x2e, 0x77, 0x65, 0x69, 0x67, 0x68, 0x74, 0x4a, 0x80, 0x03,
  0xb4, 0x53, 0xa3, 0xb5, 0xad, 0xa0, 0xbc, 0xb9, 0x11, 0x88, 0xd8, 0x38,
  0x44, 0x07, 0x47, 0xbe, 0x65, 0xcd, 0x98, 0x3b, 0x27, 0x07, 0x21, 0x3f,
  0x91, 0x33, 0x53, 0xbe, 0xb4, 0x45, 0x8c, 0xbe, 0x7a, 0xae, 0x09, 0xbe,
  0x11, 0x39, 0x7e, 0xbd, 0x60, 0xe0, 0x91, 0x3e, 0xc3, 0xb7, 0x50, 0xbe,
  0x11, 0x64, 0xf1, 0xbd, 0xa6, 0x49, 0x90, 0x3e, 0xc4, 0x94, 0x79, 0x3e,
  0x40, 0xdb, 0x93, 0xbe, 0x33, 0x48, 0xf8, 0xbe, 0xbf, 0xa1, 0x3f, 0x3f,
  0x9c, 0x71, 0x1a, 0xb9, 0xcd, 0x2a, 0x4e, 0xbe, 0xae, 0x9a, 0x77, 0x3d,
  0xf9, 0xae, 0xc5, 0xbe, 0x20, 0x5d, 0x27, 0xbd, 0x02, 0x03, 0x65, 0x3f,
  0xcc, 0x05, 0x71, 0x3c, 0x6a, 0xb2, 0xbc, 0xbe, 0x82, 0x77, 0x1b, 0x3d,
  0x24, 0x28, 0x71, 0x3e, 0xe6, 0x69, 0xa6, 0x3c, 0x01, 0x96, 0x89, 0xbe,
  0xc7, 0xa4, 0x80, 0x3d, 0xb6, 0xf8, 0x92, 0x3e, 0x02, 0x43, 0xbf, 0x30,
  0x29, 0x5f, 0x03, 0x00, 0x82, 0x1e, 0x04, 0x80, 0x4d, 0x6a, 0x61, 0xbe,
  0x8d, 0xea, 0x97, 0xbe, 0x07, 0x3b, 0x01, 0xbe, 0x55, 0x73, 0x3f, 0xbe,
  0x6b, 0x5d, 0x10, 0xbe, 0xa0, 0x94, 0x81, 0xbe, 0xd6, 0x65, 0x93, 0xbe,
  0x81, 0xfa, 0xb0, 0xbe, 0x51, 0x7c, 0x31, 0xbe, 0xb7, 0x17, 0xab, 0xbe,
  0x27, 0x05, 0x47, 0xbe, 0x65, 0x61, 0x40, 0xbe, 0x51, 0x63, 0x09, 0xbe,
  0x9a, 0xc3, 0xfc, 0xbd, 0x97, 0x59, 0x0b, 0xbe, 0x64, 0xb1, 0xc7, 0xb5,
  0xa5, 0xc3, 0x8d, 0xbe, 0xd0, 0x43, 0xa3, 0xbc, 0x68, 0x3a, 0x06, 0xbe,
  0x4a, 0x70, 0xa8, 0xbe, 0x1f, 0x6c, 0xa8, 0xbd, 0x51, 0x70, 0x4b, 0xbd,
  0x88, 0xd4, 0x1a, 0xbe, 0x27, 0x18, 0x11, 0xbf, 0x76, 0xda, 0xf4, 0xbe,
  0xd3, 0xce, 0x50, 0xbc, 0x7b, 0x91, 0xbb, 0xbd, 0xc5, 0x0f, 0x8f, 0xbe,
  0xce, 0x3e, 0xb1, 0xbe, 0xba, 0x90, 0xa3, 0x35, 0x19, 0x84, 0xbc, 0x39,
  0xec, 0xd3, 0xd0, 0xb8, 0xac, 0xec, 0x72, 0x3e, 0x2c, 0xf9, 0x76, 0x3e,
  0xba, 0xb6, 0x02, 0xbf, 0x07, 0x40, 0xab, 0x3e, 0xed, 0x7b, 0x90, 0x3e,
  0xff, 0xb6, 0x35, 0x3e, 0x4a, 0x28, 0x38, 0x3e, 0xbe, 0xfc, 0x6a, 0xbe,
  0xf7, 0x8c, 0x6c, 0x3e, 0xe9, 0x87, 0x91, 0x3d, 0x5c, 0x2d, 0xa3, 0xbe,
  0x2b, 0x48, 0xf6, 0xbd, 0xd3, 0x5e, 0x33, 0x3e, 0x30, 0xcc, 0xd9, 0x3e,
  0x95, 0x3f, 0x18, 0xbf, 0x7e, 0x77, 0x93, 0x39, 0x6b, 0x06, 0x8b, 0x3e,
  0xab, 0x4b, 0x77, 0xbd, 0x36, 0x37, 0xa3, 0x3e, 0x48, 0x11, 0x73, 0x3e,
  0x8f, 0x4a, 0x55, 0xbf, 0x2d, 0x92, 0x70, 0xbc, 0xf2, 0x2d, 0xb6, 0x3e,
  0x90, 0x82, 0x2e, 0xbc, 0xe3, 0x19, 0xa6, 0xbb, 0x1d, 0x12, 0xa6, 0xbc,
  0x25, 0x76, 0x48, 0x3e, 0xb3, 0x71, 0xa8, 0x3e, 0xb6, 0x9a, 0x4e, 0xbe,
  0x2a, 0x1b, 0x08, 0x03, 0x10, 0x01, 0x42, 0x07, 0x6c, 0x33, 0x2e, 0x62,
  0x69, 0x61, 0x73, 0x4a, 0x0c, 0x79, 0x22, 0x8b, 0x3e, 0x1b, 0x48, 0x69,
  0xbe, 0xab, 0xef, 0xd8, 0x3d, 0x5a, 0x17, 0x0a, 0x05, 0x69, 0x6e, 0x70,
  0x75, 0x74, 0x12, 0x0e, 0x0a, 0x0c, 0x08, 0x01, 0x12, 0x08, 0x0a, 0x02,
  0x08, 0x01, 0x0a, 0x02, 0x08, 0x04, 0x62, 0x18, 0x0a, 0x06, 0x6f, 0x75,
  0x74, 0x70, 0x75, 0x74, 0x12, 0x0e, 0x0a, 0x0c, 0x08, 0x01, 0x12, 0x08,
  0x0a, 0x02, 0x08, 0x01, 0x0a, 0x02, 0x08, 0x03, 0x42, 0x02, 0x10, 0x09
};
unsigned int actor_onnx_len = 5844;
