unsigned char actor_onnx[] = {
  0x08, 0x06, 0x12, 0x07, 0x70, 0x79, 0x74, 0x6f, 0x72, 0x63, 0x68, 0x1a,
  0x03, 0x31, 0x2e, 0x38, 0x3a, 0x83, 0x06, 0x0a, 0x5c, 0x0a, 0x05, 0x69,
  0x6e, 0x70, 0x75, 0x74, 0x0a, 0x09, 0x6c, 0x31, 0x2e, 0x77, 0x65, 0x69,
  0x67, 0x68, 0x74, 0x0a, 0x07, 0x6c, 0x31, 0x2e, 0x62, 0x69, 0x61, 0x73,
  0x12, 0x01, 0x37, 0x1a, 0x06, 0x47, 0x65, 0x6d, 0x6d, 0x5f, 0x30, 0x22,
  0x04, 0x47, 0x65, 0x6d, 0x6d, 0x2a, 0x0f, 0x0a, 0x05, 0x61, 0x6c, 0x70,
  0x68, 0x61, 0x15, 0x00, 0x00, 0x80, 0x3f, 0xa0, 0x01, 0x01, 0x2a, 0x0e,
  0x0a, 0x04, 0x62, 0x65, 0x74, 0x61, 0x15, 0x00, 0x00, 0x80, 0x3f, 0xa0,
  0x01, 0x01, 0x2a, 0x0d, 0x0a, 0x06, 0x74, 0x72, 0x61, 0x6e, 0x73, 0x42,
  0x18, 0x01, 0xa0, 0x01, 0x02, 0x0a, 0x14, 0x0a, 0x01, 0x37, 0x12, 0x01,
  0x38, 0x1a, 0x06, 0x52, 0x65, 0x6c, 0x75, 0x5f, 0x31, 0x22, 0x04, 0x52,
  0x65, 0x6c, 0x75, 0x0a, 0x58, 0x0a, 0x01, 0x38, 0x0a, 0x09, 0x6c, 0x32,
  0x2e, 0x77, 0x65, 0x69, 0x67, 0x68, 0x74, 0x0a, 0x07, 0x6c, 0x32, 0x2e,
  0x62, 0x69, 0x61, 0x73, 0x12, 0x01, 0x39, 0x1a, 0x06, 0x47, 0x65, 0x6d,
  0x6d, 0x5f, 0x32, 0x22, 0x04, 0x47, 0x65, 0x6d, 0x6d, 0x2a, 0x0f, 0x0a,
  0x05, 0x61, 0x6c, 0x70, 0x68, 0x61, 0x15, 0x00, 0x00, 0x80, 0x3f, 0xa0,
  0x01, 0x01, 0x2a, 0x0e, 0x0a, 0x04, 0x62, 0x65, 0x74, 0x61, 0x15, 0x00,
  0x00, 0x80, 0x3f, 0xa0, 0x01, 0x01, 0x2a, 0x0d, 0x0a, 0x06, 0x74, 0x72,
  0x61, 0x6e, 0x73, 0x42, 0x18, 0x01, 0xa0, 0x01, 0x02, 0x0a, 0x15, 0x0a,
  0x01, 0x39, 0x12, 0x02, 0x31, 0x30, 0x1a, 0x06, 0x52, 0x65, 0x6c, 0x75,
  0x5f, 0x33, 0x22, 0x04, 0x52, 0x65, 0x6c, 0x75, 0x0a, 0x5a, 0x0a, 0x02,
  0x31, 0x30, 0x0a, 0x09, 0x6c, 0x33, 0x2e, 0x77, 0x65, 0x69, 0x67, 0x68,
  0x74, 0x0a, 0x07, 0x6c, 0x33, 0x2e, 0x62, 0x69, 0x61, 0x73, 0x12, 0x02,
  0x31, 0x31, 0x1a, 0x06, 0x47, 0x65, 0x6d, 0x6d, 0x5f, 0x34, 0x22, 0x04,
  0x47, 0x65, 0x6d, 0x6d, 0x2a, 0x0f, 0x0a, 0x05, 0x61, 0x6c, 0x70, 0x68,
  0x61, 0x15, 0x00, 0x00, 0x80, 0x3f, 0xa0, 0x01, 0x01, 0x2a, 0x0e, 0x0a,
  0x04, 0x62, 0x65, 0x74, 0x61, 0x15, 0x00, 0x00, 0x80, 0x3f, 0xa0, 0x01,
  0x01, 0x2a, 0x0d, 0x0a, 0x06, 0x74, 0x72, 0x61, 0x6e, 0x73, 0x42, 0x18,
  0x01, 0xa0, 0x01, 0x02, 0x0a, 0x2d, 0x0a, 0x02, 0x31, 0x31, 0x12, 0x06,
  0x6f, 0x75, 0x74, 0x70, 0x75, 0x74, 0x1a, 0x09, 0x53, 0x6f, 0x66, 0x74,
  0x6d, 0x61, 0x78, 0x5f, 0x35, 0x22, 0x07, 0x53, 0x6f, 0x66, 0x74, 0x6d,
  0x61, 0x78, 0x2a, 0x0b, 0x0a, 0x04, 0x61, 0x78, 0x69, 0x73, 0x18, 0x01,
  0xa0, 0x01, 0x02, 0x12, 0x10, 0x74, 0x6f, 0x72, 0x63, 0x68, 0x2d, 0x6a,
  0x69, 0x74, 0x2d, 0x65, 0x78, 0x70, 0x6f, 0x72, 0x74, 0x2a, 0x53, 0x08,
  0x04, 0x08, 0x04, 0x10, 0x01, 0x42, 0x09, 0x6c, 0x31, 0x2e, 0x77, 0x65,
  0x69, 0x67, 0x68, 0x74, 0x4a, 0x40, 0x25, 0x32, 0x04, 0xc0, 0xd0, 0x30,
  0x2e, 0xbd, 0x30, 0x7e, 0x8f, 0x3e, 0xc0, 0xe9, 0xdb, 0x3c, 0xfb, 0x70,
  0x9c, 0xbc, 0x7a, 0xca, 0x52, 0x3e, 0x93, 0x86, 0x04, 0x3e, 0xda, 0x23,
  0xfc, 0xbf, 0xf7, 0xde, 0xa8, 0x3e, 0xc9, 0xc1, 0x54, 0x3f, 0x4e, 0x64,
  0x81, 0x3f, 0x5b, 0x94, 0x40, 0x3f, 0xa0, 0xd3, 0xc1, 0xbf, 0x22, 0xe5,
  0xa1, 0xbe, 0xf3, 0x91, 0xa3, 0x3e, 0xf7, 0xdf, 0x43, 0x3e, 0x2a, 0x1f,
  0x08, 0x04, 0x10, 0x01, 0x42, 0x07, 0x6c, 0x31, 0x2e, 0x62, 0x69, 0x61,
  0x73, 0x4a, 0x10, 0x95, 0xd0, 0x9f, 0x3e, 0xa6, 0x52, 0xd9, 0x3d, 0x3d,
  0x69, 0xe5, 0x3b, 0xa4, 0x20, 0x61, 0x3e, 0x2a, 0x53, 0x08, 0x04, 0x08,
  0x04, 0x10, 0x01, 0x42, 0x09, 0x6c, 0x32, 0x2e, 0x77, 0x65, 0x69, 0x67,
  0x68, 0x74, 0x4a, 0x40, 0x38, 0x56, 0xa0, 0x3f, 0x18, 0xa9, 0x82, 0x3f,
  0x73, 0xaf, 0xca, 0x3b, 0x78, 0x59, 0x5e, 0x3f, 0x7a, 0x82, 0xbe, 0x3d,
  0x7b, 0x41, 0x23, 0x3f, 0x04, 0x46, 0x48, 0x3e, 0x1b, 0x7f, 0x73, 0xbe,
  0x0b, 0xf0, 0x0a, 0xc0, 0x0e, 0x04, 0xba, 0xbf, 0xcf, 0xb6, 0x29, 0x3f,
  0x01, 0x88, 0xc5, 0xbf, 0xc8, 0x6e, 0x89, 0x3f, 0x14, 0xcf, 0x4a, 0x3f,
  0xbe, 0xde, 0x64, 0xbd, 0x9f, 0x6e, 0x82, 0x3f, 0x2a, 0x1f, 0x08, 0x04,
  0x10, 0x01, 0x42, 0x07, 0x6c, 0x32, 0x2e, 0x62, 0x69, 0x61, 0x73, 0x4a,
  0x10, 0xa3, 0x61, 0x86, 0xbe, 0xc1, 0xd0, 0x96, 0xbf, 0x79, 0xcb, 0x29,
  0x3f, 0x29, 0xbe, 0x26, 0x3f, 0x2a, 0x43, 0x08, 0x03, 0x08, 0x04, 0x10,
  0x01, 0x42, 0x09, 0x6c, 0x33, 0x2e, 0x77, 0x65, 0x69, 0x67, 0x68, 0x74,
  0x4a, 0x30, 0xc5, 0xe9, 0x57, 0x3f, 0xe4, 0x36, 0xa5, 0x3f, 0x43, 0xd9,
  0x80, 0xbf, 0x09, 0xac, 0xa2, 0x3e, 0xb1, 0xa5, 0x0b, 0x3f, 0x2c, 0x0e,
  0xff, 0x3c, 0x98, 0x5d, 0xd4, 0xbe, 0x08, 0xdf, 0xa7, 0x3f, 0xe1, 0x3f,
  0x9b, 0xbf, 0xf1, 0x9a, 0x8f, 0xbe, 0x01, 0xd2, 0x5a, 0x3f, 0x62, 0xc0,
  0xae, 0xbf, 0x2a, 0x1b, 0x08, 0x03, 0x10, 0x01, 0x42, 0x07, 0x6c, 0x33,
  0x2e, 0x62, 0x69, 0x61, 0x73, 0x4a, 0x0c, 0xd5, 0x7e, 0xe0, 0xbf, 0x96,
  0x04, 0x76, 0x3f, 0xba, 0x42, 0x0b, 0xbf, 0x5a, 0x17, 0x0a, 0x05, 0x69,
  0x6e, 0x70, 0x75, 0x74, 0x12, 0x0e, 0x0a, 0x0c, 0x08, 0x01, 0x12, 0x08,
  0x0a, 0x02, 0x08, 0x01, 0x0a, 0x02, 0x08, 0x04, 0x62, 0x18, 0x0a, 0x06,
  0x6f, 0x75, 0x74, 0x70, 0x75, 0x74, 0x12, 0x0e, 0x0a, 0x0c, 0x08, 0x01,
  0x12, 0x08, 0x0a, 0x02, 0x08, 0x01, 0x0a, 0x02, 0x08, 0x03, 0x42, 0x02,
  0x10, 0x09
};
unsigned int actor_onnx_len = 794;
