unsigned char actor_onnx[] = {
  0x08, 0x06, 0x12, 0x07, 0x70, 0x79, 0x74, 0x6f, 0x72, 0x63, 0x68, 0x1a,
  0x03, 0x31, 0x2e, 0x38, 0x3a, 0xf9, 0x10, 0x0a, 0x5c, 0x0a, 0x05, 0x69,
  0x6e, 0x70, 0x75, 0x74, 0x0a, 0x09, 0x6c, 0x31, 0x2e, 0x77, 0x65, 0x69,
  0x67, 0x68, 0x74, 0x0a, 0x07, 0x6c, 0x31, 0x2e, 0x62, 0x69, 0x61, 0x73,
  0x12, 0x01, 0x37, 0x1a, 0x06, 0x47, 0x65, 0x6d, 0x6d, 0x5f, 0x30, 0x22,
  0x04, 0x47, 0x65, 0x6d, 0x6d, 0x2a, 0x0f, 0x0a, 0x05, 0x61, 0x6c, 0x70,
  0x68, 0x61, 0x15, 0x00, 0x00, 0x80, 0x3f, 0xa0, 0x01, 0x01, 0x2a, 0x0e,
  0x0a, 0x04, 0x62, 0x65, 0x74, 0x61, 0x15, 0x00, 0x00, 0x80, 0x3f, 0xa0,
  0x01, 0x01, 0x2a, 0x0d, 0x0a, 0x06, 0x74, 0x72, 0x61, 0x6e, 0x73, 0x42,
  0x18, 0x01, 0xa0, 0x01, 0x02, 0x0a, 0x14, 0x0a, 0x01, 0x37, 0x12, 0x01,
  0x38, 0x1a, 0x06, 0x52, 0x65, 0x6c, 0x75, 0x5f, 0x31, 0x22, 0x04, 0x52,
  0x65, 0x6c, 0x75, 0x0a, 0x58, 0x0a, 0x01, 0x38, 0x0a, 0x09, 0x6c, 0x32,
  0x2e, 0x77, 0x65, 0x69, 0x67, 0x68, 0x74, 0x0a, 0x07, 0x6c, 0x32, 0x2e,
  0x62, 0x69, 0x61, 0x73, 0x12, 0x01, 0x39, 0x1a, 0x06, 0x47, 0x65, 0x6d,
  0x6d, 0x5f, 0x32, 0x22, 0x04, 0x47, 0x65, 0x6d, 0x6d, 0x2a, 0x0f, 0x0a,
  0x05, 0x61, 0x6c, 0x70, 0x68, 0x61, 0x15, 0x00, 0x00, 0x80, 0x3f, 0xa0,
  0x01, 0x01, 0x2a, 0x0e, 0x0a, 0x04, 0x62, 0x65, 0x74, 0x61, 0x15, 0x00,
  0x00, 0x80, 0x3f, 0xa0, 0x01, 0x01, 0x2a, 0x0d, 0x0a, 0x06, 0x74, 0x72,
  0x61, 0x6e, 0x73, 0x42, 0x18, 0x01, 0xa0, 0x01, 0x02, 0x0a, 0x15, 0x0a,
  0x01, 0x39, 0x12, 0x02, 0x31, 0x30, 0x1a, 0x06, 0x52, 0x65, 0x6c, 0x75,
  0x5f, 0x33, 0x22, 0x04, 0x52, 0x65, 0x6c, 0x75, 0x0a, 0x5a, 0x0a, 0x02,
  0x31, 0x30, 0x0a, 0x09, 0x6c, 0x33, 0x2e, 0x77, 0x65, 0x69, 0x67, 0x68,
  0x74, 0x0a, 0x07, 0x6c, 0x33, 0x2e, 0x62, 0x69, 0x61, 0x73, 0x12, 0x02,
  0x31, 0x31, 0x1a, 0x06, 0x47, 0x65, 0x6d, 0x6d, 0x5f, 0x34, 0x22, 0x04,
  0x47, 0x65, 0x6d, 0x6d, 0x2a, 0x0f, 0x0a, 0x05, 0x61, 0x6c, 0x70, 0x68,
  0x61, 0x15, 0x00, 0x00, 0x80, 0x3f, 0xa0, 0x01, 0x01, 0x2a, 0x0e, 0x0a,
  0x04, 0x62, 0x65, 0x74, 0x61, 0x15, 0x00, 0x00, 0x80, 0x3f, 0xa0, 0x01,
  0x01, 0x2a, 0x0d, 0x0a, 0x06, 0x74, 0x72, 0x61, 0x6e, 0x73, 0x42, 0x18,
  0x01, 0xa0, 0x01, 0x02, 0x0a, 0x2d, 0x0a, 0x02, 0x31, 0x31, 0x12, 0x06,
  0x6f, 0x75, 0x74, 0x70, 0x75, 0x74, 0x1a, 0x09, 0x53, 0x6f, 0x66, 0x74,
  0x6d, 0x61, 0x78, 0x5f, 0x35, 0x22, 0x07, 0x53, 0x6f, 0x66, 0x74, 0x6d,
  0x61, 0x78, 0x2a, 0x0b, 0x0a, 0x04, 0x61, 0x78, 0x69, 0x73, 0x18, 0x01,
  0xa0, 0x01, 0x02, 0x12, 0x10, 0x74, 0x6f, 0x72, 0x63, 0x68, 0x2d, 0x6a,
  0x69, 0x74, 0x2d, 0x65, 0x78, 0x70, 0x6f, 0x72, 0x74, 0x2a, 0x94, 0x02,
  0x08, 0x10, 0x08, 0x04, 0x10, 0x01, 0x42, 0x09, 0x6c, 0x31, 0x2e, 0x77,
  0x65, 0x69, 0x67, 0x68, 0x74, 0x4a, 0x80, 0x02, 0xb4, 0xe8, 0x15, 0x3f,
  0xc2, 0x6e, 0x5d, 0x3c, 0xdf, 0xc5, 0xa9, 0x3e, 0x93, 0x82, 0x4a, 0x3e,
  0x61, 0x6e, 0xf3, 0x3e, 0x68, 0xa3, 0xaf, 0xbe, 0x06, 0x53, 0xcb, 0x3e,
  0x1b, 0xf2, 0x3d, 0x3e, 0x75, 0x54, 0x2e, 0x3f, 0x1a, 0x7d, 0x03, 0x3f,
  0x2e, 0x82, 0xd0, 0x3e, 0xce, 0x55, 0xed, 0x3e, 0xf7, 0xa1, 0x2e, 0xbd,
  0x51, 0xcd, 0x73, 0xbc, 0x15, 0x73, 0x61, 0x3f, 0x10, 0x02, 0xef, 0xbd,
  0x56, 0x23, 0x25, 0x3d, 0x05, 0x65, 0xc1, 0x3d, 0x86, 0x33, 0x0c, 0xc0,
  0x04, 0x4f, 0x06, 0x3e, 0x88, 0xf4, 0x86, 0xbd, 0xd4, 0x34, 0x98, 0xbf,
  0xaf, 0xc0, 0xb7, 0xbe, 0x54, 0x42, 0x4d, 0x3e, 0x66, 0x03, 0xcd, 0xbd,
  0x75, 0x5f, 0xae, 0xbe, 0xf1, 0xab, 0x78, 0xbb, 0x88, 0x6f, 0xd5, 0x3d,
  0x33, 0xb2, 0xe2, 0x3e, 0xdc, 0xe7, 0x59, 0x3e, 0x8f, 0x9f, 0x39, 0x3e,
  0x99, 0xaa, 0xc8, 0x3c, 0x65, 0x2d, 0xae, 0x3e, 0x14, 0xdc, 0xdd, 0x3c,
  0x56, 0x8a, 0x88, 0x3e, 0x8f, 0xb0, 0x39, 0x3f, 0xbc, 0x8d, 0xc5, 0x3e,
  0x58, 0x99, 0xc9, 0xbe, 0xd9, 0x93, 0x74, 0xbf, 0x35, 0xcc, 0x39, 0x3f,
  0x77, 0xd0, 0xdb, 0x3d, 0x74, 0x0d, 0xb4, 0x3e, 0x47, 0xc1, 0x05, 0x3f,
  0x0a, 0x34, 0x46, 0xbf, 0xc1, 0xc8, 0x8e, 0xbe, 0x14, 0x1a, 0xc1, 0x3e,
  0x1a, 0xc4, 0xc1, 0xbe, 0xd1, 0x63, 0x95, 0xbe, 0xca, 0x0a, 0x60, 0x3e,
  0x0f, 0x43, 0x23, 0x3f, 0x8b, 0xc4, 0x24, 0x3f, 0x6b, 0xc2, 0x1b, 0x3f,
  0x1d, 0xec, 0x3c, 0x3f, 0x0c, 0xc7, 0xd9, 0xbe, 0xc1, 0x22, 0x05, 0xbe,
  0xff, 0xf7, 0x06, 0xbf, 0xea, 0x8e, 0x13, 0xbf, 0x60, 0xd2, 0x8d, 0xbe,
  0x79, 0x6d, 0xcc, 0x3d, 0xc7, 0x68, 0xb1, 0x3e, 0xeb, 0x78, 0xac, 0xbe,
  0x12, 0xb1, 0xde, 0xbd, 0x2d, 0x34, 0x3d, 0x3e, 0x42, 0x71, 0xcf, 0x3e,
  0x2a, 0x4f, 0x08, 0x10, 0x10, 0x01, 0x42, 0x07, 0x6c, 0x31, 0x2e, 0x62,
  0x69, 0x61, 0x73, 0x4a, 0x40, 0x28, 0xc7, 0x82, 0x3e, 0x79, 0xd7, 0x76,
  0x3e, 0xae, 0x99, 0xea, 0xbe, 0x3b, 0x47, 0x02, 0x3e, 0x77, 0x73, 0x20,
  0x3e, 0x98, 0xae, 0x33, 0x3e, 0x2c, 0xdd, 0x93, 0x3e, 0x32, 0x20, 0x0b,
  0x3f, 0x96, 0xe9, 0x94, 0x3e, 0x4d, 0x92, 0x11, 0x3e, 0xb5, 0x8c, 0x7c,
  0x3e, 0xe0, 0xce, 0x10, 0x3f, 0x4b, 0x20, 0x82, 0xbd, 0x15, 0x66, 0x1e,
  0x3f, 0x3e, 0x3f, 0xa2, 0x3e, 0xc1, 0xcd, 0x0e, 0x3e, 0x2a, 0x94, 0x08,
  0x08, 0x10, 0x08, 0x10, 0x10, 0x01, 0x42, 0x09, 0x6c, 0x32, 0x2e, 0x77,
  0x65, 0x69, 0x67, 0x68, 0x74, 0x4a, 0x80, 0x08, 0x88, 0x85, 0x3a, 0x3e,
  0xeb, 0xa8, 0x30, 0x3e, 0x21, 0xb6, 0x92, 0x3d, 0x20, 0x7c, 0x8b, 0xbd,
  0xc0, 0x56, 0x6f, 0xbf, 0xfb, 0xed, 0x0d, 0x3f, 0x11, 0xe4, 0x1a, 0x3e,
  0x77, 0x56, 0x1e, 0x3e, 0xd7, 0xc5, 0x2c, 0xbe, 0x8d, 0x58, 0x2a, 0x3f,
  0xa6, 0x36, 0x95, 0x3f, 0xe7, 0xbe, 0xa5, 0xbe, 0x58, 0x45, 0x34, 0x3d,
  0xdc, 0x9d, 0xf7, 0x3d, 0xfe, 0x77, 0x12, 0xbe, 0x97, 0x77, 0x1f, 0xbf,
  0x8b, 0xcb, 0x3d, 0xbc, 0xff, 0x08, 0x02, 0x3e, 0x57, 0x3d, 0x25, 0xbe,
  0xd3, 0x43, 0xc8, 0x3e, 0x12, 0xbe, 0x9c, 0x3f, 0x95, 0x0f, 0x9e, 0x3f,
  0xe1, 0xeb, 0x01, 0xbf, 0x10, 0x3a, 0xfa, 0xbd, 0x1d, 0x4e, 0x33, 0x3d,
  0xdc, 0x70, 0xe1, 0x3e, 0xab, 0x7a, 0x84, 0x3e, 0x82, 0x3e, 0x2e, 0x3e,
  0xed, 0x91, 0x25, 0x3e, 0x24, 0x04, 0x49, 0x3f, 0x6b, 0x3b, 0xf6, 0xbb,
  0x9d, 0x00, 0x9b, 0xbe, 0x39, 0xe5, 0x0c, 0x3e, 0xa2, 0x8e, 0xe4, 0x3d,
  0x45, 0x95, 0x75, 0x3e, 0x6c, 0x83, 0x88, 0x3d, 0xb1, 0x26, 0x8d, 0xbe,
  0x44, 0x34, 0xfb, 0xbe, 0x81, 0xdf, 0x8d, 0xbd, 0x32, 0xeb, 0x9e, 0x3d,
  0xb6, 0xe9, 0xec, 0x3d, 0xa3, 0x9e, 0x8e, 0xbe, 0x01, 0x23, 0x06, 0xbf,
  0xe9, 0x0a, 0xb3, 0x3e, 0x99, 0x8b, 0xca, 0x3d, 0xa0, 0xf5, 0x45, 0xbe,
  0xc9, 0xe9, 0x26, 0xbd, 0x3f, 0xc7, 0x31, 0x3f, 0xbd, 0xf1, 0x00, 0xbe,
  0xb1, 0xe9, 0xd3, 0xbd, 0x23, 0x50, 0x84, 0xbe, 0x93, 0xe2, 0xea, 0x3e,
  0x28, 0x7b, 0xb9, 0x3f, 0xa4, 0x7b, 0xcd, 0x3f, 0x9f, 0x92, 0xe1, 0xbd,
  0x14, 0x95, 0x37, 0xbe, 0xb3, 0xd6, 0x85, 0xbd, 0x79, 0xa4, 0x22, 0x3f,
  0xc1, 0x74, 0x1b, 0x3e, 0xde, 0x64, 0x37, 0x3e, 0xe4, 0x74, 0x08, 0x3e,
  0x19, 0xfa, 0xd0, 0x3c, 0x8f, 0x70, 0x17, 0x3f, 0xfb, 0x25, 0x7e, 0x3d,
  0x57, 0x2c, 0xe2, 0xbd, 0xaa, 0x18, 0x58, 0x3e, 0xf2, 0x99, 0xec, 0x3d,
  0x77, 0x31, 0x87, 0xbc, 0x5b, 0xd4, 0x82, 0x3d, 0x1d, 0xd7, 0x9a, 0x3e,
  0x30, 0xc4, 0x7a, 0xbd, 0xf4, 0xfb, 0x2e, 0x3e, 0x84, 0xe3, 0xcc, 0xbd,
  0x03, 0x1b, 0x3d, 0x3f, 0xda, 0x58, 0x0b, 0x3f, 0xf5, 0x87, 0x15, 0xbe,
  0x67, 0x0b, 0x7f, 0xbe, 0x79, 0xba, 0x20, 0x3f, 0x7b, 0x77, 0x33, 0xbe,
  0x93, 0xd1, 0x37, 0xbf, 0x25, 0xb4, 0x83, 0x3e, 0x7d, 0xbb, 0xbf, 0x3e,
  0x74, 0x68, 0x58, 0x3e, 0x20, 0xa1, 0x98, 0xbe, 0x6e, 0x76, 0x08, 0xbf,
  0x0e, 0xb0, 0x1a, 0xbf, 0x2b, 0xf7, 0x9c, 0x3e, 0xa6, 0x84, 0x45, 0xbe,
  0x2d, 0xf1, 0x83, 0x3e, 0x5c, 0x6d, 0x2c, 0xbe, 0xdb, 0x0e, 0x4b, 0xbf,
  0x09, 0x91, 0xf7, 0x3d, 0x2c, 0x7c, 0xf4, 0x3c, 0xf8, 0x31, 0xd1, 0xbe,
  0x94, 0x40, 0x82, 0x3e, 0xa6, 0x53, 0x29, 0x3f, 0x8e, 0xb8, 0xac, 0x3e,
  0x21, 0xb4, 0xf4, 0x3d, 0x85, 0x2e, 0xa2, 0x3e, 0xe4, 0xc7, 0xa1, 0xbe,
  0x9b, 0x42, 0x52, 0xbf, 0x98, 0xcc, 0x4e, 0xbf, 0x58, 0x7f, 0xf6, 0x3e,
  0x5f, 0x97, 0x48, 0x3e, 0x82, 0x21, 0x26, 0xbe, 0x2f, 0x8f, 0x96, 0xbd,
  0xa9, 0xec, 0x41, 0x3e, 0xe3, 0x84, 0x18, 0xbf, 0xb4, 0x5b, 0x80, 0x3e,
  0x09, 0x92, 0xfd, 0xbe, 0xb6, 0xca, 0x21, 0xbf, 0x6f, 0xe0, 0xe1, 0xbc,
  0x14, 0xcc, 0xff, 0x3c, 0x2f, 0x8f, 0xed, 0x3d, 0x60, 0x72, 0x62, 0x3e,
  0x73, 0x9d, 0x4f, 0xbe, 0x90, 0x7b, 0xcf, 0xbd, 0x48, 0x93, 0xad, 0xbe,
  0xb0, 0x33, 0x6c, 0xbe, 0x8f, 0xe3, 0x42, 0x3e, 0x52, 0x14, 0xd9, 0x3e,
  0xa4, 0x55, 0x04, 0xbf, 0xd1, 0x83, 0x0b, 0xbf, 0xaa, 0x99, 0xa2, 0x3e,
  0x4e, 0xdb, 0x52, 0x3e, 0x99, 0x29, 0x39, 0xbe, 0xde, 0x88, 0xe7, 0xbd,
  0xd6, 0xb4, 0x19, 0x3f, 0x94, 0xe3, 0x16, 0xbd, 0xca, 0xb6, 0x9e, 0x3d,
  0x9a, 0xd7, 0xcd, 0x3d, 0x86, 0x52, 0x15, 0xbc, 0x8f, 0xa6, 0xda, 0xbe,
  0xc9, 0x47, 0x12, 0xbf, 0x0e, 0xbb, 0xc9, 0x3e, 0xe8, 0x5a, 0x2c, 0x3e,
  0xcb, 0x62, 0x25, 0x3e, 0xbe, 0x50, 0xb4, 0xbd, 0x2d, 0x27, 0x05, 0xbf,
  0xc5, 0xc8, 0xee, 0xbd, 0xa5, 0x63, 0xb5, 0x3e, 0x04, 0x80, 0xa2, 0xbe,
  0x63, 0x95, 0x91, 0x3e, 0x55, 0x77, 0x15, 0x3f, 0x38, 0xb9, 0x14, 0xbe,
  0x06, 0x42, 0x1c, 0xbe, 0x24, 0xed, 0x15, 0xbe, 0x7d, 0x82, 0xe3, 0x3e,
  0xf9, 0x8d, 0xa3, 0x3f, 0xd4, 0x40, 0x90, 0x3f, 0xec, 0x1a, 0x02, 0xbf,
  0xd3, 0xb5, 0x1f, 0x3c, 0xd1, 0xbd, 0xf9, 0xbc, 0x32, 0xd2, 0x80, 0x3e,
  0xa5, 0xf7, 0xa4, 0x3e, 0x6f, 0xfd, 0x0a, 0x3f, 0x68, 0x97, 0x8f, 0x3e,
  0x44, 0xfb, 0x46, 0x3f, 0xf7, 0x03, 0x03, 0xbe, 0x5e, 0x57, 0x9b, 0xbe,
  0xac, 0x21, 0x6a, 0x3e, 0x82, 0xec, 0xd1, 0x3b, 0xae, 0xee, 0x00, 0x3e,
  0x84, 0xc8, 0x0c, 0xbe, 0xc1, 0x7a, 0x2e, 0xbf, 0xd7, 0xcc, 0xfe, 0xbe,
  0x27, 0xc2, 0xb0, 0x3e, 0xb0, 0x9e, 0x2b, 0x3e, 0x4b, 0xcb, 0x19, 0x3e,
  0x48, 0xa1, 0xc4, 0xbe, 0x19, 0x2d, 0x2b, 0xbf, 0x62, 0x63, 0x80, 0x3e,
  0xc7, 0x32, 0x86, 0x3e, 0xf1, 0x0c, 0xcb, 0xbe, 0xdc, 0x45, 0x1f, 0x3f,
  0xbe, 0xd3, 0x2a, 0x3f, 0x08, 0xd2, 0x33, 0x3e, 0x61, 0x33, 0xe4, 0x3d,
  0x4a, 0x71, 0x43, 0x3e, 0xa7, 0xf7, 0x34, 0xbd, 0x71, 0xc4, 0x15, 0xbf,
  0x55, 0x43, 0x29, 0xbf, 0x57, 0xb1, 0xd1, 0x3e, 0x18, 0xc2, 0x5e, 0x3e,
  0x28, 0xdd, 0x6b, 0x3e, 0x0f, 0x76, 0xec, 0xbe, 0x49, 0x62, 0x87, 0xbe,
  0x26, 0x21, 0x14, 0xbe, 0x64, 0x7e, 0xcf, 0x3d, 0x01, 0xa5, 0xd0, 0xbe,
  0xd9, 0xf3, 0x81, 0x3e, 0x24, 0xfe, 0x1e, 0x3f, 0x36, 0x6b, 0x0b, 0xbd,
  0x8e, 0xb4, 0xcc, 0xbc, 0x7a, 0x54, 0xd3, 0xbd, 0x2a, 0xbf, 0x72, 0x3e,
  0xc4, 0x59, 0x43, 0x3f, 0x8f, 0xde, 0x79, 0x3f, 0xfc, 0x0c, 0x63, 0x3d,
  0x3a, 0x13, 0x51, 0x3d, 0x9f, 0xff, 0xf4, 0xbd, 0x3a, 0x84, 0xbf, 0x3e,
  0xe9, 0x76, 0xc9, 0x3e, 0xf2, 0x4d, 0x95, 0x3d, 0xe6, 0x48, 0x22, 0xbc,
  0x0d, 0xa2, 0x9b, 0x3d, 0x89, 0x74, 0x19, 0xbe, 0x3d, 0x1c, 0xf1, 0xbe,
  0x22, 0x79, 0x3f, 0x3e, 0x0b, 0x27, 0xa5, 0x3e, 0x32, 0x8e, 0x88, 0x3e,
  0x87, 0x9a, 0x2c, 0xbe, 0x2c, 0xb9, 0x7a, 0xbf, 0xb4, 0x29, 0x54, 0xbf,
  0xab, 0x67, 0x00, 0x3f, 0x2e, 0x0d, 0x82, 0x3d, 0x8b, 0xf1, 0x04, 0x3e,
  0x7c, 0x04, 0xce, 0xbe, 0x16, 0xd9, 0x30, 0xbe, 0x94, 0x7f, 0x97, 0x3d,
  0x75, 0x7a, 0x5c, 0xbd, 0xb4, 0x1d, 0x0e, 0xbf, 0x98, 0x1d, 0xa9, 0x3d,
  0xbf, 0xb6, 0xc0, 0x3e, 0x0d, 0x23, 0x48, 0x3e, 0x19, 0x91, 0x94, 0x3e,
  0x73, 0x75, 0x8f, 0x3d, 0xe1, 0x96, 0xfe, 0xbe, 0x61, 0xda, 0x3e, 0xbf,
  0x17, 0x67, 0x1d, 0xbf, 0xdb, 0xae, 0xd0, 0x3e, 0xd6, 0x01, 0x46, 0xbd,
  0x1c, 0x0d, 0x9f, 0x3e, 0xa6, 0xea, 0xc2, 0xbe, 0x29, 0x45, 0x7f, 0xbf,
  0xbc, 0x8c, 0x50, 0xbe, 0x7b, 0x22, 0x3d, 0xbd, 0xa1, 0x71, 0x09, 0xbf,
  0x41, 0xa6, 0x6c, 0xbc, 0x4b, 0xd5, 0xcb, 0x3e, 0x8a, 0xa0, 0x93, 0x3b,
  0x1c, 0xb6, 0x24, 0x3e, 0x3f, 0xb9, 0xee, 0x3d, 0x14, 0xc0, 0xd2, 0x3e,
  0x01, 0x90, 0x58, 0x3f, 0x26, 0x42, 0x5c, 0x3f, 0xac, 0xdb, 0xf6, 0xbe,
  0x1f, 0x00, 0x19, 0xbe, 0x66, 0x37, 0xfe, 0x3d, 0xe1, 0x68, 0x84, 0xbe,
  0xd5, 0x35, 0x1c, 0x3e, 0x08, 0x06, 0x27, 0x3e, 0xeb, 0x8b, 0xe0, 0x3c,
  0xc4, 0xe9, 0x1d, 0x3f, 0xe0, 0x2d, 0x59, 0x3e, 0xb7, 0xa3, 0xc7, 0x3d,
  0x2a, 0x4f, 0x08, 0x10, 0x10, 0x01, 0x42, 0x07, 0x6c, 0x32, 0x2e, 0x62,
  0x69, 0x61, 0x73, 0x4a, 0x40, 0xdf, 0x82, 0xc5, 0x3c, 0x87, 0x11, 0x2a,
  0x3e, 0xb0, 0x19, 0x8d, 0x3d, 0x48, 0x9b, 0xe9, 0x3d, 0x93, 0x68, 0x5a,
  0x3e, 0x5f, 0x30, 0x88, 0xbe, 0x86, 0xf0, 0x45, 0x3e, 0x10, 0x1a, 0xbe,
  0xbe, 0x83, 0xf8, 0x07, 0x3e, 0x13, 0xb6, 0x54, 0x3e, 0x02, 0x6d, 0x21,
  0xbe, 0x66, 0x73, 0x2f, 0xbc, 0x24, 0x29, 0x3e, 0x3e, 0x14, 0x10, 0x46,
  0xbc, 0xb7, 0x79, 0x07, 0x3e, 0x1e, 0x5e, 0x05, 0xbe, 0x2a, 0xd4, 0x01,
  0x08, 0x03, 0x08, 0x10, 0x10, 0x01, 0x42, 0x09, 0x6c, 0x33, 0x2e, 0x77,
  0x65, 0x69, 0x67, 0x68, 0x74, 0x4a, 0xc0, 0x01, 0x10, 0x01, 0xba, 0x3e,
  0xaf, 0x37, 0xb3, 0x3e, 0x0d, 0x1b, 0x3d, 0xbf, 0xb1, 0xd2, 0x08, 0x3e,
  0x1f, 0xbb, 0x07, 0x3f, 0x91, 0xc1, 0xe7, 0xbe, 0xe7, 0xdb, 0x04, 0x3d,
  0x4c, 0xb7, 0x3a, 0xbf, 0x09, 0x22, 0xe3, 0xbe, 0xf3, 0x6f, 0xdc, 0x3e,
  0x1a, 0xf9, 0x3e, 0xbf, 0xaf, 0x20, 0xb8, 0xbe, 0x1c, 0x20, 0x05, 0x3f,
  0xbf, 0xd5, 0xb8, 0xbe, 0xbd, 0x4c, 0x9c, 0xbf, 0x96, 0x15, 0x2e, 0xbe,
  0x44, 0x89, 0xc3, 0xbf, 0x2c, 0xc0, 0xa8, 0x3e, 0x54, 0xe0, 0xd8, 0x3e,
  0x45, 0x21, 0xca, 0x3f, 0xca, 0xf6, 0x4e, 0xbf, 0x31, 0xea, 0x87, 0x3e,
  0x4d, 0xd4, 0x05, 0xbf, 0x93, 0x42, 0x13, 0x3f, 0x44, 0xc0, 0x1e, 0x3e,
  0x74, 0x75, 0xfa, 0x3e, 0xf4, 0x53, 0x76, 0x3e, 0xff, 0xe6, 0x45, 0x3e,
  0xd5, 0xba, 0x3e, 0x3e, 0xcb, 0xed, 0x29, 0x3d, 0x4d, 0x0c, 0x95, 0x3e,
  0x5a, 0xb3, 0x46, 0x3f, 0x2b, 0xb4, 0xc1, 0x3e, 0x2f, 0xc0, 0x15, 0xbf,
  0x87, 0x93, 0x8b, 0x3e, 0xcb, 0x7a, 0xda, 0xbf, 0xa5, 0xbb, 0xdb, 0xbd,
  0x9c, 0x18, 0x9b, 0x3e, 0xe4, 0xb8, 0x32, 0x3e, 0x36, 0x67, 0x76, 0x3e,
  0x7a, 0x9c, 0xa7, 0x3e, 0x7b, 0xaa, 0x25, 0xbf, 0x79, 0xca, 0xce, 0x3e,
  0x38, 0x6d, 0xc0, 0x3e, 0x79, 0x31, 0xf5, 0xbe, 0x30, 0x73, 0x19, 0x3f,
  0xee, 0x98, 0x16, 0x3f, 0x15, 0x29, 0x11, 0xbf, 0x2a, 0x1b, 0x08, 0x03,
  0x10, 0x01, 0x42, 0x07, 0x6c, 0x33, 0x2e, 0x62, 0x69, 0x61, 0x73, 0x4a,
  0x0c, 0xc5, 0x90, 0x43, 0xbd, 0x12, 0xd4, 0x07, 0xbe, 0xfb, 0xf8, 0xa1,
  0x3d, 0x5a, 0x17, 0x0a, 0x05, 0x69, 0x6e, 0x70, 0x75, 0x74, 0x12, 0x0e,
  0x0a, 0x0c, 0x08, 0x01, 0x12, 0x08, 0x0a, 0x02, 0x08, 0x01, 0x0a, 0x02,
  0x08, 0x04, 0x62, 0x18, 0x0a, 0x06, 0x6f, 0x75, 0x74, 0x70, 0x75, 0x74,
  0x12, 0x0e, 0x0a, 0x0c, 0x08, 0x01, 0x12, 0x08, 0x0a, 0x02, 0x08, 0x01,
  0x0a, 0x02, 0x08, 0x03, 0x42, 0x02, 0x10, 0x09
};
unsigned int actor_onnx_len = 2192;
